module {
  memref.global "private" @constant_7840xf32_0 : memref<7840xf32> = dense<"0xAA8E373C03E8E63CC165FEBC6E39A03AAADC49BCCA72193CFCC0CCBCB3205DBC1361EE3B9CCEA9BCE6B20D3D6EDF56BA70C7B63C599F51BCA36B823CA13B543C811571BB1E7E993C4A5D39BC9321FF3C773FA8BB9C5C113DFC3DF2BCF893E73B1C3CF0BC1F99113D45624CBC1C77A7BC13A26B3C237597BC0081A0BC553998BC4A2FB23ABD0E123BBFAC063D1285AFBC3AD88CBCD27F0BBBBF1802BA7854BE3C8593C63CB93D4CBCCF8678BBCA2510BCC0E757BCB509EC3BBD67A0BCA3712D38135FD0BBB2B027BC68E223BC392EBE3C1E2E9B3C0C319FBC0CC8D23C5CE2CDBB774D52BC550F8B3CE4CFED3C6A4C80BB08D8F03CC497F93CA45E053D8637EB3C431C12BD7741533C72DA983C3FA1C0BC114974BCDDBD60BCFC7715BDE2D0C93BE9E570BC71A6FBBB83FEEA3B3154E4BBF1D55C3C7CCBF43C1A40293C839CF73BBBCF3E3C2A68F5BA9A5A073DF56F8F3C4EF9683C9E8A963C7262E53C5D6AA5BC8DA133BC9E77F73C8F54FCBB147630BCD5D2E3BC41FC1CBD30591DBDEB57953AB95936BDFE552C3C9CD4813C1404AFBCE8C8A1BBB57FCCBC7F229F3BF8DAB7BCFF5525BCA67A23BC44AECB3C9C34DDBCBEEA953CB1570FBC11655EBCF86B09BDDC3C41BBBC269EBC9C54043C580389BC8825843C1A8784BC49F7A13C6B170CB9B0680FBDC333F9BC2805D3BAA29CE6BC7A655EBCD14D363C9B1AF0BBC37D453C9F80A63B4DD6D2BB59DBA03CD919B6BCC973F63C65B7843CA53CF13BAA0CEBBCF027BF3BFD78133CE0ED5FBBC10CAEBB532003BC850EDC3C170EA7BB4CF7153C9CE6E83C0F2C103B80E9F5BBB5A0D1BC309A803CFAD136BD4619CD3BA6150BBDB7D1E43CDDE1C93C4B051ABC8D93953D8DF10B3D7C2E213D5A47943C3972873C65E6F7397075D3BB04FAFCBC7C432EBCD88C743C3E09C23C4C21BD3CDE5F9EBB4ABF613C1C1D3ABB612F02BDFFDB3B3C6AB05DBAC71018BC9E45F4BC0DD1163CAA1012BDBF68F0BB440E363CD55E793C8892C9BCA3979A3CC98F313BBA229E3DDA396A3DB519A33D42BAAF3D2FBFE63B09DC553D79FB3D3CE33D153CF42636BD50E3AF3C56332CBC7514893B4BE194BCC2231ABCF5EEB9BC5172B63C4788B83CF9286FBCA7427EBCDB44B6BCBE1824BD8B4645BD01C84CBD64A09E3B807AEE3C5D53933C3C19293D5CE1943CAE52223D5D54503D4DBE723D31154D3DC21B2C3D467DA23B52DAD13CA2161F3DB719ABBBA8CD25BD40D2BE3BD8AB093D2F2B27BCA8B9393C6A3EFDBC253B0ABDE161EBBC273080BCA89503BC0FE9FDBC65E7B2BC684F0CBDD378F3BBE55544BC8316C53C48EE31BC7824853C83A20E3D40AC083D987BE23CADE87A3D55E82A3D237D6E3DB04BA13D7C56793DEB151DBB2AA0F33919CDD13CCDD112BC05A211BDE2F786BC1795503C849972BB3FD7003D549AE2BC285260BC61E62DBCFA52EDBC6EEC00BDCED7933C67F5D33C5E4A91BB2596533D7C56A13B3955623DDF80873CFCB3AE3CBFAC173C456B8EBCE8121D3CA095293DC934A03DADA7B83DB4DA643DC6DE173DE96A07BD0E2C8BBCB17962BB3029BFBC21B7A3BCE865B1BA59133CBC3CCF99BC395BB7BC68912C3CA2B997BCE6930D3C79B7AC3CEF3E1CBCDAB62E3D6EB6983C31D7BF3C5D64D3BBC641ED3C1DA91EBD8D6A19BD32333CBD1C84E1B9856B8B3D56293B3D6250593D8D8AA93D1590BD3C1953E33CA4BD663CDD3F983C32E48E3BB95B533C60E3B03C638B7F3B55F82BBCF6E8DDBC42F9933B3CD42B3C5E2B3A3DD253513DD628EF3C0A344E3DBF00393DD6DDF53CD6CCE4BCD242C1BCA1A414BD543AC3BD695F31BDA65B7ABC24D5973C9B04AE3DE948E53D4CEB9E3DE7A4123DBF2A213DD17FB3BC0A49FC3CE61CDABCC4CB85B925AF303C1DF0CD3C4434573C8AA9DA3CC7A6C2BC4840263D6503843A2D5B023C1A03EF3C48CC823DB4E515BBA83519BB5C46B3BD3240B5BDE92DB8BD4A2207BE114FA8BD730FA0BD1707433CD5B9E43C3645E43D4CBFAC3DDA425E3D717F123D168C5BBC5414FC3B17EED2BC4AD7FD3C1614863B242CE4BBDE439C3C0BA7BCBC3D719C3C1A10223DD1576A3CFB5C723DB0E70C3D5F7D2F3D3DA82C3CFC57A4BD5194B2BD6BFB1FBEECDC0BBE4653EEBDF72B1DBEE38F52BD73D182BCD9969F3DEC8D9A3DA7FABA3DC05D5D3DDD8A043DFBFFF3BBFBBFC5BB24120DBDD1EFAE3C87F007BDA330D0BC211FAC3C1FF4AABC094885BBAACCC93CDE92BF3D4C70B53D26FF983D6CEB243D1AF55EBD43D582BD312404BEABC92BBEAB513BBE9C832BBE6C19F7BD1D3B4DBDE79D92BCF0BD8C3DCCE2E83DFAD96F3D73ED393D1278B03CE1C391BC4B8012BD9FC19E3CFF8C0ABDA7D8CF3B37578F3C61A7BB3CCA4C033D0A2DF73C46FCC93D69CB313DC1A9A13D1BB5CA3CE2A4D5BCEBBA95BD8369BABD21300EBEC25328BE641734BEA63A11BE7F19D4BDF04051BD3C03013D8C2A363D9E96693DA9F6B13DCC54A93CDF9709BC7152C1BC3E34E93C9E870E3D5F29B03B170C2C3C8D8BCDBC78500EBD19A8BABCBB610C3DA0F2323D1197773DDCB4673DDD6BA33D607704BD779EC3BDB147A3BD091A19BE1BA4E5BD2CEE21BEADFAB0BD6B4F88BD040CA3BB4C71F93C0A7E913D4E32AD3DEB53923D533E3D3DC175EE3CECB3FA3C90BF37BC92F0D43BC55E8A3C384907BDDC2B3E3C5EB299BCFD470A3DA8EB0C3D4DC19C3DFFF5A63DF306B23D2F829F3CE0599D3C730DB4BD61B7D5BD80D8A1BD4FCB10BEA2080CBE822D3FBD97BB61BD156D083DE8E94D3DD031583DF919F43C275A753DAB64ADBAC81F053CEFCB353C4C5E283C19D0843C47598BBCC7BDDDBCF1FC603C7242A93CCF2EE73C52EC443DB86FDC3DC413FA3D43F8C13D860A953DA18238BC972489BC90691ABD0DE7C6BDB65EBEBD6AA983BD28CE3FBC177D08BCB6477ABBA1E2833D506FE43CCDB6AC3C3367483CDFB2123DD0A3B33B6376013DDB2FA13C858FF9BC51830A3DA86D18BC8397073DA8C5BFBCD084C83A2AD2183C985BB33D6B007A3D7E727C3D709FBF3D250C20BCE38D833B4E9DBFBC344A97BD98C87CBD5828D0BCD79005BD2493503CD6CB173DA9BF8F3CFF5D61BCB2D5233DC7207ABC3DC6533B1A73033DE122B23C5FA33DBA4DD70BBD93A1C9BA55420BBD1612F73CC65A1ABD6B6794BCDA988BBB1BA1473DFC417D3D322D7F3DE49DC93DDE8A843D3717C13BA48435BC0CB0AF3C06CD94BC1EF7F43B26D5893C7967063D1E7F43BBF137193CE0D77F3C8818FABAE6A4453B5F25B43C347582B9013D89BC072A87BC90185ABCAA902F3BE85C8239652A013BF216963CDCAEBC3C5CB8123DFAA9133BDDCC613D7C5AA63D524CB83D1D9A813D811E483D97F9673DEA87053D36D6323DB700D33B5BA0203D6208A13CCA62AE3B7AC803BD0B67063C3E18803BF85703B8338FCF3CF0FA623CAEB855BC070DA5BCAC64D63C13008CBC15C3243C58E5033D2AE99CBC08E389BCEFC7E93B0ABBB33AB2F1863B98AC0B3D100FE63CABEFC33DFEAA103D7DBF213D3EB95E3DE3E7523D222F183BA2352F3D5299003C3935163C7A5217BDCCE7DFBCFB6D87BCA7318A3BCDE8C7BB832C0B3C9DA4E0BCDADD29BC536E8DBCE86307BDD7A559BCDB7405BD982C10BDB86D61BCE16EA9BC959181BBCFF9213CE70AC13CE82E063DAC09213D08E9323D820B623DC8021F3DE3D5F03CC641F9BC5D6203BD75E48A3CA5EC20BD2807003C92D805BD412FA23B95A14DBC4783D23CA439AABCCBB93DBB695861BC7C9B58BCCC23FB3CB708B5BCC39EBFBC51E18EBC6466BFBC6467A7BC6A11D4BCDFB255BCB5DF9B3C5D53E8BC57A5A2BC19557D3C4E05F0BC6D8644BD33BC03BC8F88E53B32570DBD26C0D63AC18A1ABDB502553C1FE5B13B2AEF8A3C3DC2DB3AB281F73C1103B73CD4A4F1BBBEF80FBDD3CAC6BCA009A33CD882F8BCC6DBD8BBB2D4EEBCE0A60DBDB2110CBDCDAC10BD62CF22BD490D033CB834C0BA10EDB23941D233BDDC7499BC7C7F37BBE4A44FBC0FFC483CD185ADBC8AE208BD885AD43BC9DEDDBB11C588BCBA386A3CF2A0B13C0D45013D9B6D66BCD61D4A3CE381BFBC46E207BD5CB5C23B31EED73C97DF0D3CCA7FC83CF505D33CD55FDF3B5BECCEBC706AFC3CD70316BBA504E6BB57E6373C4C74ACBC25E7163C4932BD3CBC9800BDA2A0563CF9B6BD3C56C9E63C8260B8BB450714BD3C0614BDD6A202BCB4B4DA3B690BFB3BC383CD3CE8EE42BCC1BAC4BC2E00A63B2AD146BC6EF181BCEE40D3BBD333BCBC77E49D3CFA34ECBC7405D6BCC75B453C5DCEA2BC1FD6A33CD4EB97BC949BB2BC534A82BB2B7769BC1E698ABC6B7DCEBC03788F3C35A835BBF4258F3C8AC06E3CB336F7BC6AB07A3C47DA0ABD1A07E03CFFD50E3DB77BCB3CEED6E73C85264E3C0761D1BCD8CF08BDADD8073D4AAD33BB13F76F3CC5DAA1BC9CFBCBBC6E7D48BCFEB1C73C709DA0BCFE50B33CA7800E3DFC9D1E3B1364B73B5ABA02BD992842BC13B910BD05C443BC6F14033D4A55C23CC5BD36BC67A3D93C93F4A0380E696BBCAED9C8BB8A824C3C6E3AC2BCD119BA3CC54895BCBC05923C3743463BEEA0263CC10747BC4596DC3C7CF9E33B83C8EEBCBF7EBE3BA237913BB792603B7722223C870F1E3C4CCB45BCB77FFDBCB0A5C4BCB16AF6BC6FFF3A3C84D10A3DB6179D3CA4C28EBCCEF303BD90415DBCFA4201BC574A13BCF3668D3CCE0B013C33CBD13C8844F93CF59EA4BCB759A4BC70540DBA4482DB3C2AE7DFBB5AEC79BCDB43C1BCDD7D033C4AA209BDF70FBCBB1B4A7EBB215C293C9E41D63CFF7E3FBB98C8823BC096E7BCA71C90BC3170BD3CD77ECBBCD9CAF93C79C5D7BB7C336BBCC7D3C93C4BFAFABCAE168DBBB5F8053DB515F9BC259272BC93A2F8BA1DDBD2BC5468E53C0842B43C444B71BC64F30DBC764BF93C46B924BB30569BBC903089BCB3314BBC1E3BB6BB56AB01BC01FF8BBC533A9D3CBDE1EC3BBDD13E3C9BE6173C4B1EB6BC54F0DD3CF3F0AEBC5BA7BD3C241912BD04F499BCEC6587BCC805023DFCB25DBCCAC9663C0143C7BBFB4AF2BB90EEAEBC55ECA63C0489013D5E95D33CDEC0963CA09D923C3FC5A33CBF8B483B6FD850BD096B2ABD706B56BA48F6A83B375C203D3843EBBCE3B8D1BB8004A23B09DEF53C192C8FBC5E6C123C0E70503C017600BDCE8980BC774F36BC5AB14B3B0ECCD3BC20E4183CDC19923B4D64243B0A50F63C32F580BC74D4923C214B273A2AA2D63B863210BD201200BBB919E1BCB2DC0ABCC9CD6EBBC7C7D73A3C12E83CC413113D6B0A583BB5DA593C12A9E6BB34B6033CD6D9A03C7A18153D37F78CBCB295B8BC2243A9BC9B178EBC0690EE3AE618FC3BA5D48BBC311B01BCCE9783BBB05E0CBD7EEAE33CBDAE183CBB1EBE3ADE99AEB70F164DBC112A5CBD883EA4BD024D1FBD02B498BCAA8D10BD067EBBBC2A929C3AD010D5BC0E8F3A3CE869613C3800313D84170C3D96A415BD5640A4BB4B22773C89D31CBC0CCC033C09ED663CE522E3BBF0D1A03CD94AFD3C6D41DC3C903A563B0C0CD83C8C08ABBCA90B1EBC9F26B1BCF56893BD099FA3BDC2DC4ABD82A5C7BD73A556BDDBB9D9BC0C4FAFBCE37CDF395850BB3C5EADE1BC1DF4C3BCC17B133C33DE22BC3CDB7FBCBBCD5CBD4C3783BB0D535DBBF75454BBD9FEC43CB56F7D3BFD83D53CDBDA0C3DA39DA73CEA1A10BC52C52C3CE8EA2EBD77F650BDAAC059BD7557FFBC38937EBDD2F7CBBD5EE8D7BD466092BD096BDFBC1B381E3D113E553D72230D3BB91A273CA448393B04ADCEBB0D1E8EBD655880BDAD9374BD4C490EBD96580BBC9A6D9A3B123810BD2D4BBF3C8E24B43C3EA7BB3C658956BCFBA751BCE2931BBD819455BC3BAF9EBAB54C9A3BAD639EBDD14F96BD8605A5BDBBDDBABD26628ABDFD07C1BC32F7733D8FABCB3D958EC83D97C3413CD0F7FDBCB857A2BDDCE426BDE3504CBD13A4F7BC35EEF1BB3847A33C028B8F3C9F5F3DBC719CF93C244209BD80AAEE3C77478FBC6A7001BD4CA23DBC42A9FDBB8D01943C3BEB4BBD50CD1CBDEC490CBD3F83E2BDF89CDCBDA39E6FBD2A2E7F3C2708223E527B463E695FCA3D45F1E8BC5D774BBDF8F29FBD209F6BBDA98142BC62BA47BD3F631FBCE22C9CBB988B83BCDE10053C21421DBC063C1ABC19FA04BBFFC6C5BC1A93EF3CDFE9B93C193F9A3CD56613BD338A3CBD4FAD65BC1C64B0BD3D80DABD0635F6BD30DBF6BCC57E8D3DE211153EA2AE293ED6C2BB3D3AE1B7BCFFD51ABD7020C4BD8F818DBDBBEB38BD31CD993B775BB7BCA329C53C2D893CBC39F05ABB2FEC19B97B0C083DA632043DF608093D7D5CEF3C5B028C3C5D6411BD7DE4C53B7BBF67BCDF1811BD9A89C8BD425CBEBD1C4CB6BDF74D74BD3896BC3D25E8603EE77F333E073DEB3CBA301FBD84E25ABD5876A8BD9EDB1EBDF03D58BD21DD14BD60C29DBC2BBEB53CC00605BDB5A67CBC3DF805B90E4D0A3D9C9EAC3B84C1F93C22F613BC8DC3B73C14CD9DBB3E891CBD0D6457BD88F91CBD5E0D29BD72048FBDE7540EBE76B995BDB3BC943DC2FB6A3EEC0C023E0EA699BB2568FFBD60E7B5BDACFFB7BD51AE59BDFB84B4BC16EA16BD0635D63CFD93AEBC377630BC1AAFC03C859AADBCB9BD803CF7EECABC35D71FBC47060E3DEFABADBA4B66CCBBB92B35BDBC0380BDD2E78BBDF5EBCDBDDD7FDDBD46C206BE58B731BDDC7C0F3EC734443EA971E13D4C2AA7BD5FCEC4BDD974A8BD8A4781BDF7F732BCD33A64BD0594C73BDF6EE1BBFFF8EC3C462AB4BC1B0EC83CB197A33CB6A9E33CFE83B8BBEE519A3CCCB0ECBCC359C13C878F0BBD77B5C0BC2E34B7BC926E56BDE15162BD1D88E8BD68D3B2BD6F53AABC9AFB003E61665E3E6A09BD3D007B87BD9E2BABBD78EFF4BD02EC98BD155E64BDF8F2A6BC2FC1B93B2783863BAD51CABC1714F3BC5D0867BC59FA8FBC1572DBBC518DEB3CA9B50B3DE97A13BD76D7E93CBACD58BC46D706BCB40A27BD1AE65DBDA06A78BD217918BDA0A527BD78979E3C1DB4173E2FCF0A3EBC16023D5D31DABD8D19B5BD0CB9A7BDE2BA50BD239E8DBD139D39BC9D98AFBC9B5FFEBC5AAF85BC1CDB843C7DEDECBC1268F03B45735CBC054410BDA93BBA3C1482903C4C54AB3C3BECA6BCA8D0C43B4DAF4EBDB0D8D4BC166A98BD7CA63DBDB28389BB2226CA3DF5ED463E7702103E4CD91B3C283E85BD1D11F9BDB3ED8ABD4C4676BDE11F5CBD364C20BDF12A94BB7D2D22BD2EC689BCEB44063D0544D43C1A1AE93B47B4F23C4985023DE2ADB4BCC558613CAEBBEBB92C700DBD69E24ABD61FF51BD8F266ABDA45676BC90217E3C41D9A13C3DDAAE3DC6E4003E95FEC03D2C83CF3C634991BDE8A9DBBDDC5C8ABDF6582FBDE8625FBD77E3A8BC4C320CBD9918A7BB00AE653CE343C4BCCD36D93C9CBCCABC62F50A3D9227C53C95E1323C46BF67BC1499883CAB876A3C27E885BDD5E0C2BCE0F305BDC56DE6BB00DCA13C2F1A8D3D8CC8853D929A813D1810383D42EB373C934B9DBDE092E1BDBBD08CBD032568BDE752C6BBED869FBCA48A50BD35858FBC57DB1C3AEB6F99BC6095333C0BDBD13C4C1FE93CACC1DE3B94EB093C27C816BDFFD4343CD6E1A73B35B0DCBB5A5F58BD9480D5BC5B02433CA81CAC3C4CB2193D6A77073DB8B2303D8737693DB1B9513C0A7597BDA2BD4ABD6ADD3DBD00B6AABD4B1D12BD124BE9BC01E2853C9A2C453BB30BB23C79EA0C3D17F10D3DCE6E0ABDE99EEA3B1AAE3BBCD5392F3A70F6EDBCE32005BDF9CB0FBD6FCA33BDC9EF40BD204404BB9A6FECBC54AE893BC12D353C5083B9BB6CFCEF3CD08F1E3D78F2B7BCD77620BCB0B51BBD270D72BD2EBD80BDFF52B0BC74F7543CD1703B3C0967D03CFEFDB9BCBFA6E6BB02FC803C03EFD53CFE0CC53C7FB885BC7CE9DDBC7BE318BCB403D2BC01EAB9BC5056C2BB0F57AF3B3A2EFC3C91B7C73CBFCB2B3D7B5565BCFF8F46BBC6F67D3CE7D273BC0587B23B158C86BA70AAA5BC62D5D2BB76404EBC30D18DBC80A9053C0E77EB3C2CD6BEBB71B4CA3CAC54C63B703754BCD87A6C3C87B38F3C6E00DABBD77DEC3A2A39EA3B4A6C9C3B0838DDBC6202023C0604E03C30412E3BD8230B3D0B39C6BB92BAFEBB113D8E3C48599F3C5CF9903CD4F5C33C089CD93C4682A33C2B5D6FBCF642B8BBF1D9B33CB2AE0FBD827BDDBCE494B43CEC3DDA3BD378863CD5E7C53CCE6B1C3CB5B1A43C370523BCACFBEABC9623E73C13B3AEBC1F2F8EBBE556E53C6C4900BDF75ABA3C1D2705BD42E595BB66B9CFBC56E36ABDAF9F36BDBD95DFBC670828BCBEC82C3C79C408BDDB902DBD480AED3CCB888CBC3471B1BCDF7E2EBBAF5DC5BC2A6339BC7400C9BB2A5109BD7887F5BC6E8602BCAEC988BBB0C30CBC90E2E7BCD651913C114ACC3C47178B3C198AF73BEE8FBCBCFC3E9DBB42D088BC455F93BCC80766BD56E3BEBB44CF4EBA3B84BDBC991EE53AA45623BD0277C73C35F2CCBC432AFFBC2C0CD9BC95D29A3CF910823CD6B0D53B970890BCBE08773C6E15CB3B4AE047BB7E5D963C1CC0803B266F30BC962AA23CB5EDC1BC6635CD3C41F4C13C8A20D83CE50C7BBC3441E2BBC8BD1EBD2847E4BCD4F5443C2273ACBCAEEBC8BC548F313C90B8CC3B42289FBC2BB9F1BC75DAFB3C6251E6B9DFF1D7BCD6A64FBCC59C8B3C194EAD3C7C552BBC557780BC70D7A8BC13C24A3C25CDC3BA3CBF8ABC86BD1B3B4E7D763C20DFC8BC10C70ABC0E7DB7BB0551BD3BEE61083D3D4692BCA648D2BC4343B63B0F4BCFBC9C0C23BC35AC173CB46CFC3B3066AE3C53AC883C6BE13E3CCD2A76BBD1C5FBBCEA776EBAF31F483C1CADA0BCB7C01EBC2549933A3F8405BD9308C23C5C9D313B1CDD983CB7ACB93CDDDD02BDAA21B0BCEEC226BCA246013D4EC621BCEE06DDBB01FC713A7709CA3C26039EBCAF8DABBA9BA57CBC386809BDEE07A6BC5CEF9CBB8A0E8E3B0A811C3C382F6CBC531E46BCF33DB43C08DAE53C931A65BA81D26FBCE332D13C35B70EBDCE188F3C3C41DC3CC7F2A43CD39F013DB79F6BBBBB6F73BCBC95EC3C54E0F53C9AA49D3CF4AAA03C59414F3CBCEBBDBCE272E8BC2196DABC1B3783394A5232BADBD9B4BCB62CEB3C7E16003D82C089BB94C833BCA644A4BCF197D83CDCCC2DBC03BDDABC7EFFA0BC9AE1D53C407E89BC5C6316BBF9BAD9BCA643E13C2B136CBC1452CEBC938ACCBCA125C03C7E18543CE7B9AFBC90AA08BD8DB1113DADF61BBC2D670ABBEBC5103BA117DFBC3243E9BBF3653A3C05E68D3C7BE0543C1E0AC73C176EDA3C4562DCBC30F6B33BF2B5B5B82E6EC83CA80711BD6A3651BC9E1A0C3DDC76673C29F3AE3B2CB0B8BCFE7D77BCF4584DBC356F87BBCA493BBC2987943CF55EA63C208611BACCC72B3DC0CD7E3CF67D053D2B38123DEF69DC3B442E0EBB5BE40D3CD04387BC1022C6BCAC9AB3BC224BD43C0704A0BAA950DC3B74E3BB3CAF0DAD3C5ECCFC3C33E1D93C0A4A1CBC6C3A9CBC79EDF43CA66CE7BCB90DC9BA4FCAEDBCCB7CB5BB55F6A33B24C1663D69D8883DCE0EEB3CEC994C3D22B9E63DFD6DC83DDE1D893D0749A93D0E4AA33DC003883D0CCA343DFC0E97BCD459A039D04EEABCB60CA33B3D640DBD4C05063D7ABE6DBC5E1F8FBC8D06F83B4AA67B3C3C4DE43C1374A3BB146FD73C9FDFDDBCB5445DBB0B8EC03C47F0AE3B21875D3DF5AC1A3DF07F9C3D7E33BD3DB1A2AD3D2500EC3D306DDF3D816CD63DB847523D923C813D9EE5863C2DA47BBC0BD9693CD5DA843C4F00A8BBE50593BCFB9506B99E7ABC3C7E6A873CD06D8BBB4AA2A9BC3499703CD628EFBCE1FFD63CD525B7BCE1256C3C37F3E93C5AEE383D0A2D3E3DE20EAA3D4AFA833DE7A4C33D4BA8553D511C8D3D020D773D59E0953DF3E9A53D102F813D8C2B31BB021592BB2EA7E5BB1B0B40BA6C0A94BAFC61B1BB3682DE3BA5F3BEBCD48DD33C37FB80BC520D0ABD3FA08FBC4436AE3CA991CB3C2A20963C8CCCF13C5B073A3DD9EB473D9C11843D6DEE103D8B57E4B90DEA1D3DA149463D8F130A3C0EFD5CBAA1AD5B3CCB1E7CBC990E83BC0D8FEE3C800B91BC24477F3B1A64E4BC0DF316BD3A2157BD6B67B9BB9741DD3C2F8CA9BC2C4902BD64E8043D6A9ACA3C8E67E03C669A36BCE92AEE3CD0D6273D2100D03C60FBED3BAC0F643C6CD7F03CDFAD75BC7BEDEBBC7B617BBB36327ABD249109BD001A853CDE132CBAC769D7BC272EC4BA92A6933A98DE34BC0E5305BD5FE394BCB3AB0ABC5720E6BCBDF9A73B70B7043D3774B5BC33A010BC4BA2CD3B6248093D75BD603CC10F13BD4B9E0FBC2BAB5A3C08FBA7BC91A1D6BC034211BC69138ABCF8CFB3BD3720A8BD61F29ABDB67FD5BC654268BD20EE8A3CD0DA6C3C9D96F73B2E32083D7578F33A9CD07BBB6530BFBC28BFF7BCDB594DBC421E343C32BF87BCA4E0953C788742BCC93356BCC14FEDBC5A94CC3C52593A3CFB4106BD7A1DE2BC5F1EA5BCB90D96BD84DE8BBDD063BABDADD4E5BD1C8753BD1AAFCFBD990DB0BD2CAFABBC068FAFBC7BAA353DD795393D985B8FBC47BBFA3CC069383C94943BBD949E333AE9B5EEBC17660DBAF9C34E3BC0757CBCF10C87BC89B002BCA729C0BCBA74C13CB6CEC2BC362985BBA13F2CBD4B1C27BDA6A081BDA2D6C2BD79FBA2BDC5BC03BEA460B3BD9849D4BD5E1355BDB726B1BB6B40BA3B298B683CD13A89BCDEE1833C66A5ACBC50C3B8BC4AB342BD880FB53B4FA5C23C5AAED3BC66FAD3BC6A3AC7BC63DDB5BCCBA3CCBC58F7D1BC932DB03B051D00BD0F1A37BD552193BDE96B52BD108FAABDD39D01BE072BBCBDF4EA19BE782909BEF396E4BD4B7591BDC05E82BD822FF5BC17C9B1BC2BDAF53C553CACBCFA894C3C93ACD4BCEAB40E3B11049ABC4D61C13C763A3F3B93C68ABB0290BCBC0D30CDBCB77B08BCECA912BC5C09DC3C06B7F5B99582D9BB6B1D77BC614371BDDE8AB5BDD76CB7BDA2C7E0BD184FBCBDE16785BD0993AFBDDEA79FBD242F2CBD73EB49B7429C253B7134AABCDE33F5BCB34D2CBCC5B34C382E3A57BC242EF5BCFE3036BC6C6D6F3C26B8193BFCF3C83C9091EA3CE6D1DC3C0588103DE7C91B3C8B13DBBCEF7904BC09016DBC405DFABC9D70CBBDDAE032BD1677AABD8A674EBD9E8E1EBDB140FFBC572268BD741F6CBC20A709BD02AA4DBC2729C83C902202BDBC77C7BC243F1FBC75C9A6BCA9C03DBDA080A7BB7F10083D2D97AEBCA24C40BC4DA1C6BB343BD83CBD9537BCF9B002BDB32212BDD63DA13CCA563F3C350B43BDADF4523A9A60B4BBBD87223CE6E3313D185F2D3C98554C3D359C25BCD9DB29BB85DE5ABC80FE3F3CC6CBE8BACE1237BD47F3A7BA3A14A9BC0E920EBDF8E414BB3B21C23CA043DE3C562EDFBCAE8C7FBC39AE7E3C0EBF01BD41BE503CDEED023C8F60D5BC3FC1AD3C68F6483DE1BDD4BBABD9073D1D092D3DBD8F483D91B1C03DF96E4D3DD89E573D59A7F13C70FBF63C32EE453C641A9F3CC22FB13C6C5F1DBD558A5E3C58A620BD77C87B3B716D593C0478963B59C4203DDF3050BB5E8BC13C6E0B083C4D4A7CBC0768233C94078F3C5660FE3C34B56F3CD8F46E3C5AB8A93D26D77A3D04239C3D403D783D6896D33D4082813D8A3EA13D51582D3D454C9F3D3E5F913D236D87B775A0363DAA6FCBBC315C14BCB7A606BCF5F8733D72D3FDBA7AA8093D9A97583D5D5D5EBCD7A9C3BB241D7C3C4905213C7996083A79A9A23C3741753B4B910C3DA8FCA53D748BC93D5AD5813DC6FC9B3DB9E8643D5231873DEBA4053EC2B76B3D744B953D09BEA63D67F1123D6973FA3CB40ECA3B93D7DF3C6FA41F3DE226B73C4654D03C57FB343D3365413D2AD1AE3A76B3173C9ECA4E3B3CB1A83C6404B3BCF171D4B9EAEB5FBCD804893CE2C23D3D8DF9C53D989C933D6653E53DFA078F3D4EB0CB3D3803B73D91FB993DE48EAF3DECB29C3C22F6093DF2EF5F3DFB760B3C81705D3C11858A3C9485C73DA318703DECE2C23DF46D213DB0BD8D3D90A3303DB9EFB93C9456B43B01CFE5BAD8D1943C10FBF43C674D8B3CE20D2B3D50D1AC3D65D0D83DA49E6A3D9C26A73D0193D53DF3CF843DF7CB5F3D13638C3DDE97733D74FFA8BB31CC97BC99F801BCBCFEED3C3FFE8C3CF69F643D4F38D63D6905433D2677C63D300D653DBAC8AF3C7A53AA3CC1A3973CB0D270BC88C10C3C2C506C3CB936A33CAEC055BC9138093D3E8D8A3C6B6D913DC6B4693DE411B63D2AE87C3D72A4A53DF621893D074C593CA12D29BD884A10BD7B3F83BD41590CBDF9E99C3C65898D3D7429BE3C21167C3DB8D38E3DE6DA593DD398353D9B32483D31F2E73C57C3B13B8F65083DCDB094BCF7B8433C8AA2ABBB1273A93C4F3EA73C3600093D8BB77C3DD64F883D5CD9E23C2374C1BB717F99BCA670C539B6769EBC25B294BD9C3C7BBD158240BD796F0BBC1E46B6BC5C828E3C9962023D5DDA723D0C7D8F3D11344A3DF4C40A3CB743103DC1F1EF3B3A33DB3CD550F23CB730193C5C391CBB78898B3CBF4F33BB6D7A65BCCFF47A3C179C933C04988B3C712F3ABCCE4900BD538FC6BCBDF155BDE3BED5BD93B6ACBD0B8AC5BD3E618CBDF4E185BD5F9723BD62F2713C8E2C23BC6413943BABF0153D87EB8D3B2EB3DE3C5EA9EFBCA2BDF5BC0D20E8BCA575123C654A0FBCA85EF7BC27178F3C7166B83CD87088BC3F15B33C9666863C4AA32FBC84666EBDD10872BDD10A4EBDF0D907BDB61506BD8EDE85BDCBDEBBBCCE2057BCACD15DBDA0266CBD0899893A2B5A993C6C9DC23C1A5DB4BACF380C3D6903BA3C9B1A61BCFAE0083A09EE8FBC3561A1BCBD460E3D97D8A6BC58C640BC2AE7B2BC5D77CB3C75D3573B5BA8263CDD898ABC4B2430BD133BA6BC49AC593B78B2A9BB3BB7C6BC128F22BD084781BCA68738BC16C6B73B7A77A83CE2439EBBA63B08BD595E963BA18B16BD17ACD13C2E7938BC8EC5FC3C9E69993C502003BCD3B3C4BBD170B6BC93A8FEBC5C7B583C5B45BE3C8F6A98BCAB3103BD3E23E83C9FED6F3CDBD0B0BCC60A103CED94BFBB9D5083BCDD28F53CC37B52BCCA9DC0BC43509E3C49CD1D3C2C0BFF3B9FBD0FBD22D1FC3BBEC3ED3B6F7DD73C176452BC6433CF3C8CA7DA3C9CEDFCBB7FBB09BDB76B18BAACA080BC733C903C508C06BDF81DDD3B0B3566BC308DCDBCA6E7FBBCA7D7FABC49A2CA3C09CFED3C7AF84F3B64EFC4BC627715BB0E11ED3A36A6AA3C1372E1BCA0187C3CABB7F5BC0DEBEBBC5CF4103D32EDEE3C3274C83CD04FB33C9563A7BC737D10BDA592A5BCCEA953BCC21B00BD5C96D4BCAE3BF2BC2EFE83BCF3B0BE3C35BAE0BCE3D3B83C3799393C27E9873C610BC83CFAA4EFBC888EE2BC4A0748BCA65683BC03FDF1BC75B91BBBF17A72BCD3F6BE3C87E1AEBC7CB0433C9A51E03C2E4C863C97E4033CFF2F06BD652FA03B65C8663CA54D2CBBCA2C0A3D2C66EABCA85DE3BC0AA5F33C25A7ABBC5A17B5BCD311383C59910F3DA5D3FFBC98A0113DCE76AABC413505BB9685DD3C68CF1F3C658FEBBCA4B0E43CF60DE83CC257DD3CB7C1B2BC2F918EBCDE9C5B3B3B6ECABC57A7523B5EE9F4BB39F689BB9234AD3BBE2790BCC545DB3C936FE83CDC768E39130B25BC2A34D13CFF77A8BC30BEFABB311E7ABCDC16D13C0FFBEBBC999FBCBC469B4F3BE34ECA3C8BB7F33C235E553C4E2CB6BC85FE4D3B096083BB9313E4BC0B3EEBBB39B1CD3C03FE7FBCCCAE12BD23D5433BB7D620BCCDD8073DD40B75BC84BC54BBC00ED83C4ACDEEBA77A38FBB5E34C93CE33DD53CF138F13CAC4FADBC53C68ABC4C6C173BBFA18DBBBB4C3F3ACF52CB3CB6ABC03CC864D8BC0D42453C159EC03B12D8E8BA58DADFBBB018C3BC166F173C94BF993B23109ABC3DD7EB3C7A04993C20260CBBD5FFD7BC3442BC3CCE03A03CE5B70D3D9C9D573B1C20223CC7988CBC4190ADBB73BB0CBD7E3CC4BB3E5D373C4D79F7B9D7E8A33B7D6F56BCF630103D48169F3C96CD8DBA25A0873D740BB03BECFA13BBD3A5603D68E2AE3C5D07A3BC0B43D53C7A8CB5BBC128603CFFD1FEBC8D9791BB0A26AF3C554CD53C447BBFBC5873CF3C89948A3B8809F9BC0AEED23BCCFFFFBC0B12FEBCCA381C3C92D3D83CDD48D93C642D263DE1AB613D2DC15D3DDB7F7E3DD3C98A3D9560AD3D1B2ECF3DE3D9A23D154A753DAEE5973DFAFF7A3DF6A6A0BC68303A390297AD3CD8F8AB3B5E9D19BDC169EDBCA14D24BCABB2E7BCED84983CE2732EBC04FA88B98A84113CB29A39BC0723103DD9E75FBC3770393CB6CE243DCC03AC3C914CD93C183A303D1BA1CC3D9FCA9F3DA3A1FD3D5173DB3DF360DC3D5B6BB13DD14E653DF7B29F3D16E0453C90579ABCBA99EB3C6EA7F43BBBACF8BCE78C9ABCF2DD21BCB82C2ABCC574573C4050D5BBC73AF13C0D43B53CA738D7BCE877333CB1E0CC3B61F1A5BC7EBCC93BC2B46C3DD9E1CB3CFE33313DE707253DA6AA5B3D01A0BD3C665F873CC19CCC3BED37C43C83B3303DC470D83C6835053DBCEC3E3DEAA8DD3C57ECCE3CDA61BEBB072F17BD267C323CC81704BDBE998F3A2D92EFBCFE48D8BA2425A8BBAADD113DF8D75C3CCA177D3C94AD84BC19E04C3DCC51533D24967DBB20671B3B0D2A8ABB80E550BC3F0D03BD73A893BD527D83BD1DF713BDB1B0423C49B0133D3AAC233DFABA463DB26A003C7E54553C67D892BA2370E8BC95D657BD474778BC4D64EDBC5521AFBC16E20CBCE38207BD7E5DC03C3925883CE2057DBAB8E83C3999F9453CF3058D3BE040ADBC9AFBD5BC20B0AEBDF628A0BDA9E0CEBD03F78ABDFDA884BD0377C4BCCBA4433DD266693D4DB9D63CE876C73ABE60473DFCCA333C0FBA9E3C461264BC2C2143BD126A91BC567DA6BC7FEB3D3C9E02843C818F3ABC8ACE0E3D2DB7593BE7AF683B67E4C2B8684E8ABCA6ED14BC790492BD1CF872BDD098F6BD1DFF00BE9413B1BDDC028EBDBA56CBBC7A87D63B1370663D6978A03DD8C32D3DEC887E3C2E71F0BCF79CE9BB3A450EBD5CF190BC72F1613BAACEB9BCAA4AE2BBA9846CBCCF22CABC403A24BCFB47CABC0CBE213CF27996BC6556C1BB53EEFA3B3ECB8CB91CE263BDF3E6F2BDD23500BE1A2DC5BDF46996BD9657FFBCD55F6F3DC73B883D89C3003EE54C7C3D5F4B7D3D1BB395BB8838A73B7D343ABDFC7F1CBD090F3ABD96C6393CB2D86B3CE4B22CBCED17AD3CD33CE4BA7C830A3DDCA9CEBC23829A3C522408BD6653E4BC7152213CDF64CB3A47B9A2BD499F70BDDA43DABDD08A11BDC2C6943C105E963DEAEEBF3D0445DB3DD639D33D4A9AD33DB2E6813D60B251BC1BC0B3BC96ECAFBC2A906CBDC00D9BBCA4EBA23C0A643ABCA475373CE9043EBCF76638BBD65C493C1CB7E4BC355568BC8BBFB6BCA46025BBA304963CAA7732BD958CB3BCC4673DBD5D29BDBD9B173FBC9984083DA2FCB33DED96063E6633A93D17966C3D1136913D01F0D13C4880B0BC68174B3B4F19A7BC83A570BC8578363CC5A5DF3B36EBA03C92A4383C562B6B3C94CF3D3C6443D83BE0D8993ADB22F8BCB3A7693C45D3B03C00C101BCB835EFBA382291BD25481EBD3AC6F9BCB7EDECBCA0788C3CBC7B9E3D2C1AE83CD1638B3C9025FF3C87F10B3B5F61723DABC0003B5D93E73CD4A0133CEED824BDC07047BD61F13EBD4F39103C21897CBC5387F4BCC852A73C4B05053D408603BB49AF583C0A2D283C897DB33C66F00CBD0764983BE4FB5DBD1713E7BCE6B91EBD316959BD7A6204BDE9D802BD6BC979BD72D9A4BDC78C18BDB34EE03B0DB9DE3B872CF53C05A9E53C5CC4A43BFD8B34BCEFF7D9BCCC9E32BCA778643CC330BEBC9F57C7BC879BD23CB34440BBE60FA43C0CAC493CF315D5BBF1A64BBCC52E57BCD11F18BDA2166DBC5931F4BCE8CF80BD241890BD602394BD386BBABDE42FA9BD4829B8BD8D15DDBDD04ED1BB7F35253D54CBAB3D3A2AA83DC9EBF83CF6D466BCD3AA523C4D89B23C8389953C5123B53C5460C2BBD0D6E5BABA58913CDC7BF9BB9CABF7BCFCFE9D3C46F8843B316902BDEB6F96BCE18683BDCBB299BD6C59C0BD3B73B7BDB1BBEABD6D54D3BDAEE900BE0702A6BD8444E0BD1C03A4BC03C6EDBA2583AD3D40E4143D09C06F3D1A2CB63C5E00CC3C9306273CFB489B3BD5CDDFBCD416153C1ED0013C124F23BC28A7AF3C5170583CE37F01BCDB12183D7F0E93399C7EE7BB6615A0BC30EF9FBD08A4A2BD8521B7BD27D800BEBBF9EABD36B5B6BDD049B8BD94FA3CBDC22C40BD9D27013DE2F7013D869F973D78CA563C0B93BBBAD3F8503C46F6C9BC2F49BC3B318EED3C10DDD4BCE8881C3C42D9A0BC7997E43C8C5ED63CC3F9943C3E64803DD868653D395C8E3B737F9C3C90F5C3BCDE422FBDA64D90BD0C6EC3BD3C499FBD2D2FCABD95E268BDD33D76BD1A6C093DD445EB3C386BD13C7670483D3BD2863B25C6863CE58A57BC582A9A3CC86FD8BC7958703C1728433C6505A4BCBC7CE13C9383F43C5C20333CFBA3303D2E315E3D708D273D7CC00F3DF26A88BB0276BB3C2D3F01BD586E3BBDA3EA08BD3CFD80BDF4139ABD9BC878BD01903A3BBCFF803D8673013D6CBC273D7AC47D3D96472B3DC5F1BDBC6F0200BDBCA0A0BC52A63CB60B670EBC43B9B33B28A4CB3C185CCBBCFC0BFCBC9CC6B8BC2DDD273CE0A2223C5B0E9B3DB2462B3DE5FC263D7C83C43CF022C33C9E2082BC1132063C35467639CAFD053D32AE3A3DE0AEBA3CF5E7AC3D3D55BC3C67778F3D9C90943C450A233DEE4DE4BBE637363C93670C3C8C7701BDBCC4B2BC6B7AC6BB4F1802BDDFF9B93CE535C03C688CD13B89E7863C5B70053D983BF73CF8C19B3D7F4E833D06CBA83D8B22723D762E0D3DF6E3B33D375E8C3C8256EA3C8C94133DDF648C3DEA44903CFFDC933C1E67183B46074BBC27A7F4BB03F9C73C627F2ABD3E9B43BC9F19D4BC91571ABA7E3196BCAEB5D13B830EED3C01C06EB91B2885BBC81FD8BBA9135A3C9332373D6705F63CB7CFA43DC441A53D0C849E3D19C49F3D55C8623D9990AF3D05E39E3C3074793DFFA2293DC860053C104AA33C3D71DF3CDD392CBC6E3385BC540ED33CFA07753B8538F43C7A2FD93C9204D6BCF1DBFCBC761B0B3D7C18DDBCE5C3A93B21CB8B3B1B410C3D006A92BCDED9ED3B44B337BCE7A51D3D3EBEF43B0A3B4F3D214A083D36E15F3C0854F13BA018403D56B8A33C25CB2BBC630DB43B50BDEABC86F7ECBC2FA636BC18FE6A3C9440563C7400813CAB983BBC80EF153B1C232BBC6395163CA381F5BCB53AD2BCD53BA0BCE831E8BC99597B3C10C202BD9B60A4BCF04A153DFDEBD13CD44418BBA7A204BD19EDC73C56CB563C9FE8D1BC872862BC9DA505BD7C1FC43C1AC00A3B94F209BCA9F5E53C552B803A658051BC99DBCEBCFBE3BCBC3FA73FBC13FEC9BB00740E3D0150F5B9300C96BC65376ABC25548D3B253A91BC38B1B83C11945DBC07FBCB3B56440EBDD315BF3CB89FDCBC475E453CB6127D3C4DBB05BC0CE3ECBC58C26B3B2139DDBC6E4280BAE9F3A5BA635A833C8E515C3CF5D3EA3C5EA63FBC4F32C1BC1A677FBAA4A8443C3DE4A73CCAC56EBC254DF0BA2E94963B772E8BBC6E174C3B25EA2FBC1350F7BC783084BC40BC0F3D63C1C63C61AE8A3CEB8F0BBD9DD2B83C248E023CDB0B0CBDA6E7E03BA1256CBC2C0405BD599390BADEA2D43C96E2AA3BB6614FBC06E2FFBC60DCD7BC7E85F03C87AE03BCC084C23C35EBC73C7E9CC0BC3C7FDD3C638FC0BC4AEB8E3A649B0EBDCEF34BBC97274B3C450E72BC2BB509BD819ECCBBAA343BBC3AA081BCCE720A3CDEAAB1BCC133CEBCE420DB3C829C89BC6C74F63CE8F3323BAE23FB3C8C5C0BBDFEECA5BC5A23913CE834033D9817F73C259FA33CEAAF903C2E3E6DBCE82FE2BCC19AD63CF71E0CBCBAD0D23CC3B1E53C71A9C0BCA7C7A0BC6839093DE2B77DBC49D71ABCDABB0ABD21CA5FBC33DDB0BC77D96D3C03D2A4BB7222A43CC100853BD09434BB79895CBCDE93C63CB43208BC2A81B33C4FC2ECBC277BE6BCD36B813C7EE68DBC6B08E5BC6A92D1BC5FBC093DD35ED13C4FC5013DAE2A273C57CA9FBC7C3CDFBC048899BC746A0E3DE956B13BCCB60D3DEF57923C55E814BD9C7E6B3C78F1D13C499EA83AE65AA9BCDBE6823C53C311BD70B19A3C661E1BBD3018A33C6AFC983B3B0F273B43A574BCF7C5123C4EF0EABB80ED86BB24C90E3DCC069DBC97FE473C65B8A23C45EC7EBC6127AC3C53C523BC35A50C3D591D0BBDC4CB753CEC8BCB3CBF68DFBB773A833CDCBF60BC1AA9ECBC6EEB21BDEA41E8BCF4B5823CB57073BB5C38A3BCBBB1593C116343BB363F0EBDE9C5FEBC6550663CF5DF583C2923CB3B698AE5BC3E30CDBC2C5D09BDCAF625BC2C9FF3BCC5D905BD07ACCBBC549363BCE232B5BC30E3FD3C624EADBB4B90D4BBC8C975BC325AA63C94CC02BDF8AACB3B57841DBC265480BDF0B362BDB01E88BCC6F3C1BC3CF793BDDE407EBD83E312BD19E780BC44CE9DBA3777A23C3A19183D34F7063D31F1FF3C76FA1F3C113083BC32F00A3D635FA93CB79BD23A5BA718BCA933CA3CDE7C62BC88E88DBC89A2D8BBD15FFDBB87048BBC4CE59ABC09EE23BD58AD9DBC00FC3FBD468760BD195995BD28DF80BD91E56FBDC789F5BC3A19D9BC1FF58A3C7C66E53CCDCFC13CEF38283DC669053D9A524BBC6A33BB3C05A1D9BC9B953DBC8A24AE3C22040D3DC396F93B87139DBB0063AC3CCC9FDB3CA4DC96BC051A00BB5F79153D07A8A4BCB803ED3C443690BCF82881BD9EC062BD75ABB0BD4D98D1BDD905C3BDDE45E0BC223855BC60EDA9BC55CD3F3D2709AA3B08A9173D0D39603D7BD92C3DB1F8C0BC806012BDBA757FBC4B40A03C325EEB3C018C013A6A8D31BC1A670F3D04B3E73CE22552BBB7165EBC4AAB56BC7F7CDDBCB7405FBC3612DFBBCFC887BD2C2208BEA45DF2BDA01507BED59417BE3908A2BDA7E3043AC4337AB99470113C9210553D77E5993C0CF5323C2932B8BC6518A63C0B4C0B3AA7A1513B3784053DDFBF053D5B7AB6BB6244DE3C09913C3C38D6E7BC31F7FF3C0CA8B43C1A3292BC2BA5ACBC4DBF0FBD9837FBBCB5755ABD1CD007BE287920BE5D4E0ABEABE3E0BD6EFB42BDF7359CBCEAA14CBB7272BC3C5A79F43C531367BCD975D9BC4221983C72EACEBCF5F4EF3BD6F40FBDCA101B3CF6D59A3C6854F33C3C27963C9ADF683CF15A25BC1054C9BCE3BDDC3BB955FF3B92A7C73C6D20FEBC88A4DD390D9E38BD0F0963BDE60FBBBDA66180BD4535A3BD1AD9113C467C703D33A9E23C90BD37BA539975B921EEF83CD488DE3CAA180CBC3F778D3C72D900BD62F88E393DA4A93CF162FFBC7FD0CE3C15B054BC5E70F6BB826AB6BC7B44B6BC8B85C9BCDB69003D4B87003DB901993CF809023D6FCA01BC8EF391BDE17BCBBDD84887BDF6DA4E3C9137133D51DF343D0B634A3D6AD61E3BCD190DBC10D5283CC502EDBB4E98EABC53F8FE3C035C7FBC86FE003D4EBF0F3D53E1A33CCE40D53CE12CFB3B65580B3D5C0D0F3D3C20ACBC4422143D18C42F3C99FC583D0C6A193D9D57FE3C1E7A8B3CB93680BDD50D81BD063388BD1B3F0E3DF0EF383DA800BF3DC109043B6AAC883A3E7823BD25CCDBBCC710D4BC9525F1BC4D96E43C508511BC8F6DE1BC0D962CBC2B96FF3CBAF5A5BC6714C03C2A9B03BD095FD4BC7E7552BBDA8D603D2232D03D1754A73DD8EADC3D7507833D0875943AE89D27BD2F1025BD7583FFBC2F93013D73EDE83DB3C1093DB4EC113D089CAA3AB4221A3C2B43763B9FDDDEBCA2CFD3BCA1B2B73C170D323CAA17D33CB2D406BC40D7DBBCC25198BC4B99DF3C59FC5E3CF21607BCF7C7D93C5D88CC3D242B023ED890ED3D9334ED3DE61A993DF37823BC935725BDE1DD9BBD8F7313BDEEED003D1B24BD3D54344D3D241E4B3CED7C8EBB154AF1BC6918B73C8A8F41BC471C163C210CC3BC50898B3C025E9E3B1818F83C91F3EB3BFA7777BC627CAD3CC0C2593C514B143D4FCD123DBECAC43DBDCE223EEDD80A3EC19FF53D4F518E3DA860543DF84E5FBCD38A043CA2AAC33C73CAB93DB2AFA53D10BA7E3D5EE1953D4166673D2EEA45BBD3CB24BC9928B8BC7DE9B3BCB3F4AFBCD12687BCE6B9E33C5012A3BAE8B3AABCE782CA3C02D5F3BC6FA4893CA218873D417D463D0127B63D0A66103E4B25DE3D41B2073EBB12A53D90DF5E3D47B3823DBE84233D14A1F33DEFDAC23D7E43E03DBCF69D3D7D2B6B3DCCEF5F3C462B073D8626B5BC89C9AA3CAD768CBB7BBADB3C6D8889BC41D00EBD7D84B63B5C1F113B623A8FBC854DFA3C7B1EFD3C2CC1323C37BDB93D8D92CA3DDED7F53DE9A9DA3DE60E993DCAFAE73D0B40543D7A7CAE3D1275803DAB9AC63DF2FD123E3746C33DDA11B93DE3ECF43CBA29E8BB648CF53CEAABF4BCA01908BCCF32ED3CA6C1973A6272013C28F0FEBCFADD80BCEA8C093D1E75783A5882013CBF0641BC0E21083D98AA543CB74B8B3D71CC253DE2CEF63C08A52B3D725B84BBCD5AFE3B02279E3DA25F543DD0D2CF3D3616753D4CF9143D5274AC3C4D77703B055351BD537D37BC4BC56EBC7B61273B20031CBAFEF58DBCEE21DD3CFFAD8D3AB16B7CBCE10147BCFE8B12BD03B8B4BC0A3BD8BB7C44003C6B7154BB1E2BD13BFF4D05BDDFB5DEBC7D14C4BC72E54CBCE30890BBD64A0ABB67B3853D6D1BA93D5E73383CA28FB7BC4B5C5FBDC44091BD12993DBD91E9D4BC74591FBD347E5BBB0710D03B56C74FBCF74C10BD88DD783C013A8F3CD72C7DBCE926BDBBFD60CB3C0555613C500C1D3C58FF8ABD588259BDB5A091BD7C35D8BDD2CEB4BD6D6FA9BD4B73B2BD69FA14BDF376D13C068B3EBC47C6DE3C279A9EBC4579F0BCF3DA6EBD106467BC4B501FBD330D15BB37CEA23C749424BC688564BC977DE1BC4F84C83C054E6A3C05D5FC3B87B9F43C9CA7503B501118BDFBC177BC603B64BC9C46A3BDE57C8FBDDACC96BD18808BBD537F87BD247E74BD6831CBBCBE398ABA68E977BC00E3AFBCE2CB37BCB76D393AF4743BBDC1F2B03BFC330CBD57BA3E3C54D1FCBCDC2608BDA5A0D73C953563BC17D2DA3B3AA9DA3CABA04EBCE81CC2BA5BAD933B6DEE683B9359F6BCB08689BD4961A9BD131BD1BD27BEE7BDBE4268BD9AF55CBD605410BD4C62FDBC21B98DBD172F3EBD64F8B7BB2C019ABC5F29FDBCB4E36BBCCEE2B5BC8EF52EBC0F62813CE618F33C6443A73C3D4100BB8EF661B84AA1F53A356100BD8285E63C7F9E963C5B307DBC456E99BC8E35D5BCA6039FBC65E896BDEB29B5BD2FFC03BD5A4B94BD7D844FBDC7AC97BD6BF99DBDD9D9C0BCE2BB0A3CFBB38BBC0BFC03BB388008BCA5D4AABCA1D3D33B5FD3E03C4C96C63B8EB3033D04F3E7BC2EB04BBCD8E768BB957E02BD73DA0F3DB3E8F9BCABA0633C963182BCF449AFBC64B75CBCF7CC833C99934FBDF4936EBDA01183BD8795FABC3CF054BDE527DBBC9BD1C5BC4F4409BDF0288FBCC0FC8B3C6DC6553D13A9503D1347893CCA375D3B92578EBCB7ADE93C1C8C3E3B9BD0243C613583BC03DE9B3CC6760ABD806B9CBC5C51843BF9F3AE3C1781A23CEBA637BBCC4A2FBCAB70C3BC16D5593C367BE5BCAAF73D3C1B562ABD344F343AE7948ABCE353433CC9A6303ADECF0E3C54C80A3D2686DC3CF9428D3C52CD153D326D8DBA5BCCEABC43A7783CEB5460BC2430023B60D394BCA984073D8ADCB7BBF0CA9DBC2003803C654AFF3C2C249EBC35B7343C898B6A3B32DBD23C97DE0EBDD7580FBD2302D53952DA04BD00F0F23BE80FACBCF5656CBDB4CFC6BCEE391EBD616126BDA9264F3CE4E7963C4133463CEA0A1FBD41D1ED3B64AAB6BCC00F793BE46B083DB95A16BC6D4214BC77998D3C316EB83C9CC08B3B1AB187BC486B43BC19074D3C3B08B5BCB0130BBD31240F3C71040BBD41A0B93CE1FA063C8A1085BCC51689BC8942C5BB3D75C2BC472404BDED2FAD3C429A1F3C9216023C01B6733C810AC93C75A8503C2CF9893C9EBC863C5CD6C4BC4560C1BC9191D6BC1CB7413C6E7985BBBEF8A9BCEA07ADBCAC79B83C266DC2BB0866713C8BCF26BAC04DF8BCB2E3083D1337D73C7A6076BCF208BCBBBA3A13BBA679AC3CCD25C8BABF02F93AFAF120BC45C765BCC33203BC665744BCF4FD9A3CA46713BBFE3BDB3C24526C3A75DEC43CD8FBF53C32330FBD65127B3C1C7DD0BBA5659DBC65B4683C8550723CA5C2B0BC1CCFB8BCF7E301BC7A9CABBC2576813B60A427BC304C063DF31393BC8A1303BC1B90203AC439D0BB942A513BFCD7E6BCCADDFFBCCE2D15BC93E9EEBC355EDA3C6CB6B33C258E0FBC98A3DBBC1C78E7BB9E8FAC3C011CE43A05000C3D8A5DAA3B163508BD2535D03B016EBF3C2E7FDA3C777EF93C155C683BC94DC9BC9E65193B4A8228BCD879033DC7CC02BD2D24F73CC36F53BCFAC76CBC77E629BB386FE3BC8EC9623C7188403CDF28FA3C508FE03C4BA7CF3B8816E43CEB6F49BB8325AC3C6E913DBC3355693C2EA94B3C5115B6BCCA5D90BB9661443C3858013DFB32C1BCAAE88ABC5A1983BCCF06FAB8A5FC69BCDFDE0A3D4E8EA03CABDB013C5C99633B4A76973AD6E3FBBB81F94A3C0673743CAC6707BD28A1713B533493BC947785BC8F7387BCC513D4BC1C81CABCE0F05D3C0609FF3CD389013C2EA1993B4A8B1BBB2B1A113D2B5AB03CF81BDABC29ABCABCF9380D3A2C7CE2BCFF6ACB3C78C18BBCEEDCF43C2509CA3C514E84BC7AFED43C192CCB3CD7D908BD612C23BD2AF346BCED03E5BB5183533C8BF71C3CFF62883CE60C83BCA975063A426BB3BC7EC1E3BC2D50D4BB6F71FF3A601D993C61EC2A3C8C7BBCBC2F53273CC34B6A3C18D6CABC0D42E73C20C8CB3CACB81A3CB369973B8CC3E2BAA86E07BDF3302C3A4A8F453C8BEA42BC581A42BCA6807FBB41AB33BD3A02D6BC6370AEBB68DCCABBC4ED2DBC718A1D3D8CC257BCB34E0A3D4E17D63C653CC13C2BAC02BBEC77C43C8EED3C3CCE432BBC3595663C92C3973CBF5D71BCF8C40B3C315ED1BCCD7816BD510ADE3B4F7E743C615BA63B2249F7BC1A69B73C5B01D0BC066D93BCAAB181BCDA2E81BC99B7EF3B4379323DDC2D6E3BA219BA3C5C76893D9BEBB93DC8898E3C86691A3DFE8284BCA1F20A3D01DF3A3C786E78BC0F75913C230ADCBCA3A8AD3C24E4B93C00251EBD0B4BEEBCAB5294BC35895CBC32F7923C54E84C3CBD9B453C87FFCBBAAC308B3C1E93C2BCA3BBD3BC6A00103DF47D4ABCAE8D523DAE9D823DC834B23D65728D3DF61EED3D762F483D199CAC3C1F8F8EBB5B55AE3CDC338CBCE78C0C3D49011DBC1B9FC5BBB72EF83B5D4AC9BC999687BC5860373C0FBF793C69A2443C8DE2123DD9275E3D3A8FBD3B8C1AA63BB4B4A63CB6CE3FBC3F3FAD3CB84AD63C010F613C39E01D3DD2DCF53C5002783D57B75C3DE48F6B3D274D033E4D0FB03D7805213DF05358BC83C38BBB2444DE3BBD522FBC8BEB59BC8EA65C3C103B8FBA915D08BDE4B440BD4592A93BA9FE4DBCAA920C3BD39ECD3B16CE9A3C704E363D6F99DFBBC580033C20E5D8BC087B123C73E7BF3B05D9B53CFFF8FC3B07CBB53C3F374D3D3E27A13D1E7DA83DD6D3A63D6922873C9C4469BC005D33BB552C273C0CCE03BD959D043D3D4CE13CF7D4643C07ACD03C407C12BD0F9CE73C78A440BC1B2A763D5177043DE69B723DA37CB23CAC9A7C3D453CF6BB4E25E4BC8B60CCBC874860BD2A0690BD5E2AC4BCC08848BDDDAB1A3C3D56563BB51A783DC1E4593D46C9C33C434669BC0909D03C3CE885BBD516F8BC8957FE3B1B6D78BB7D2BB4BCCF4CD13C0A73AF3C5A10B5BCD342713C848C953DE195883D650EC23D25DE913D39400B3D4039253CE18507BC17D897BC4ACCB2BD449302BE870A90BDE2BE7EBDB0DD49BDDE31C33B300F433C28C5083D2B54C9BB98C6823B3071E1B9E6C7933B9068E3BCCBEF81BB2D54E5BC0D99B43CFE677A3CF1CC653C22E84A3D1D137E3D2FCF883D506FAC3D37C4F13D3B73E43D5FA95F3DDB3F103D9CC04ABCB9B9C8BD5E0A09BEEA2FEFBD5AEEDFBD398AC2BDD2F381BDB1018ABDDB3E2FBD60D2F83CD407763C99DCFCBCA7AF2FBC70E881BCEE899CBBBCC6073D486BE33BABF1CABCE1C60BBCFDD091BC2147D9BBCE98653DE5ED633D947E0A3E6D63F93D04A70C3EB592263D7A43893C9398033B22BE29BD5A649FBD558084BDC74AACBDDEE25DBDDF8CABBD2A237ABD433006BD2AE82E3C427B2A3C1FF7803C1ECFB43C8565B0BBFEFAA83C4021B1BC9B321CBC7AEE8FBCECAF9A3C381199BCE5E93C3DAE95BF3CB2C2953DBAB2C33DA94C093E5A9D003EF294923D45DBBC3BA41356BCF9229CBC6D6387BD3B4E95BDB252E6BC535E88BC07AF1ABDC7AA25BCA798063C941281BC98EF2EBA58BF673CA26A0D3D267BA5BB31BDB6BCAD1CC53CF763F7BB9F69C3BC1351CCB9F76622BDDCB9343B1FAB813C966FBC3C21C0873D815CD83DFC98383D4633043CD8AA1BBDE468603B43D07DBDB3C47ABD2FC022BD5DB16BBB623D44BD17560EBD0914CFBAC2E03FBD552EB13CD250ACBC81B611BD94C7CDBCE41CBA3A009D4ABC2F110DBD31C3C93BD45B88BB89A13CBDDDF6D23ADE0713BC9785043CC1964A3C70C3C63CFCCA523C3340EC3C8B9008BC84285FBD053584BD246FE5BCA78E50BD7A7289BB7753DCBB305B873C9594743CEABEAF3B5011EABC35DA8A3C12878FBC264D063D5859073CEF7FFF3C24D1E03A76AC44BC1B9A51BC22D633BCA43988BC70381CBD554914BC18CDA2BDE25480BDDE7C7DBD4AFAEABC9F4493BDF3B287BD4C0C45BD96DA28BDDEA60FBC6612ECBC632715BB504632BCDAF284BC4DA301BDBB5F92BCFED9B9BB6BDA423BECE5943CEA8BBCBCD63A87BB0ADC86BB22E8B4BCF3FDC0BC9D2C9BBC4E91013DDF5345BC340C8B3C3E2CC9BCDEE29FBDF6B419BD7972CBBDCFC0CFBD6D256EBDD0325DBD2F4DA6BDAFE246BD694E48BDEE75FF3C5F1E343D9F09FFB9D26DA53C533856BCDB816B3CE41E13BD1A9CD93C6D438EBC765239BCFA68D83CBA9317BA0CA196BCD1F9C93BC6D0EFBCC6AFCD3BEBEB1E3DBE74FEBB8FECAABCBF907EBCDC798FBDC59780BDB619AEBDA6F196BD397922BDBCCD9DBD321E8FBCBC1FBB3B1A40BEBCCB926BBC8064B73C51E1043CE609CC3C366EC83C338F083D1E68F03C8F8A91B9EB3F003D8681103D74B6653CCC8DDEBC3F5DE3BC7184DC3C31C7073D87F190BCDB00253D2E6D293D49B2C7390A953CBC1B64D6BCC88204BDFAFD95BDE0AC88BDACD8C03AEF1A56BDFF2DBA3C691A2C3C3C248D3C05B5AA3CCCE66A3CCBF80C3C87F49B3C2B12553A06FA23BBC1FD13BDE2E1DCBBD397CDBCEEAE073D4853B93BD3DE83BC838DBC3C1EADC2BC30EFF43C86F4503DA5286F3DE396413DB3FE793CB4073A3C3745E43C8B97D0BC87F729BC36711CBDC7ADC1BBD733E73C578A6D3DDB2B1D3C40F2F43C047700BA647C333D7B8785BB3B39073DC09DBBBCD7878C3B41C5223B5081243B6F3A86B988A769BCF98805BC39EECEBA5C626DBCBAEEED3BD475143D83D8AD3DF517DB3D3B4D923D70D24A3DEC48843D9756623D5CB6E1BB6683ED3C109A453B8E802C3D2159293DEC75A53C26F88E3B404ACF3C9A076C3C2C7CAF3C673D733B8D3D083B9FF1C3BC65B3C8BC65A4813C8F628F3C14B71EBBC05401BD0656D23C810189BCC756CF3C1293563B256D6F3D6B210B3DD4EC173D0734853DFFB5553D22C2913DBECB283DD969513C379C4E3D90EFA23D1818D03C0611053D9538D53B2C6C303C88259F3C3F699A3C65958A3CED0E04BA5AAFFFBB336AAEBC7CF70EBD9656013D2E7CCFBCFF4509BDBAB7F63B7BBF4ABC9739C8BBF843C83B73DFEE3C4238263CFA9C173D3C64863D902B903D3CB5943D132B7F3D059F8A3DAACD0C3D0CAB433D5AE7493D9FE930BC12A63A3D90EF67BC3D2B8A3A95FA8D3C4F2EF8B95B9B42BCE827BC3CB8B9BCBADC7488BBB8D0F9BCC1D3B03C85F43EBC1F0785BC19CDFCBCB10E57BCD5C7B43BA77EEE3CBAC491BC6EB0C03CD285233BC7515B3D7A4F653D686FDC3C7CE1C43CE664803CC1EBA93C073F9F3C590012BCEACBC9BC78BE1C3C2DEBEABBCCB9A8BCC5A91ABC8FF3933CE202CBBC5BDD34BB4C62F23C0D5711BDDC2F2ABBB12BFABABC90D3BC7DE0BD3C2BAA9E3C7DBE55BC2E25B7BC3F3027BC33ED11BD02DE763C9D80CFBB37D0E33C69DB6EBC22B5CDBC7BCEBFBB5E9425BD302B71BB8FFC08BDA96CA6BC147B0FBB969EBA3C6FF136BC65C70CBD187996BBD94910BD5788B9BC3C2775BC8A08A1BC6EC2F9BC3CD9A93C7F1A33BCB906883C321206BB13060DBDED3433BCBE97B03C8F9D1FBC483D833CD6FC83BBB3DDDE3CF77F893CAA75C63BB29525BDC28BB93CABD8493CFB37943CC7320FBD4E55AD3CE35885BC753EB4BC2ECD83BC4D52DEBC1B4F133CECEFFC3C85F6B4BC81A05B3B65B43F3CDC0E0ABDDD59093DA5FD183C21F1C43CA529523C01CE063CCE049B3B777207BD84D21DBA5E30253BAACAAB3CAA2EA8BC849ECD3B75EEBDBCC7B1023C3EEE0BBD3F81823C99FE03BBECD5E93C3C577CBBD243CABC297C72BB4EC40F3D3752803CF7B4B8BC63E182BC577B083D6EFF94BB252B10BD858FD73C67DF9D3CFC399E3C5C3D95BBA5DF99BCDC6555BC2E7CCC3C1EA19B3C1AC5AA3CB246AE3C0ABB92397CE4073D738B26BC5C442EBB75E79FBC53E2FCBCD5C2993CDCB765BCAC15F23CAA3895BC636210BD0A6C6CBC7B96083D77AE813C0A12D1BBA580653BE5E04DBCD783803C1347D8BBBAC80EBD4B2DC1BC88B80ABD6A2D52BB3061873C9192CDBC304ED6BC82B1F6BCB835E3BC2208CDBC530DDB3B70F2E4BC5D3E64BC2290F4BBE4285EBCDA6425BC436706BC9081E5BC2A5208BDD22AC6BBD869EDBC8375DFBC7C710F3C61BDE23CF8F3F2BC8E1309BD64735B3C8326AA3C01C00CBDC01D523CCEC9BFBB50190D3DF8E31E3DA79DE93C45FC0C3DF99929BC11D4C9BB81E75E3D9B29593D413D983C38553C3D2F88973CCCCA183BA1F9233DBF16583CC194F13C2E3CBDBC351705BDB63D5D3A07709C3CA08D003DA216033D258777BBEFD7103D7D943A3C10BBB23CF87FE8BCA5939EBAC8B108BBB194AEBB48A00EBA9DA6223DEE86A43C10C0FF3C300CE3BA241F643D3DCC743D43A6C03DBE5D503D78C1E93D4E09E63DA8A01A3DF033863DD60D753C26167B3A1BB1773B641323BBA93076BBA548CCBC93E410BC6ED01D3CE168613C9DD4063BF1B4003DD601683CC9C045BCCB84013D88C5D1BB6208F6BC4C58DD3C6D412FBC512EBF3CFDFB27BC384A433D4E8C183C6690E33C83108E3D82A4A63D8BEBB43D2056B33D5A4E603D0E9A093C0C631F3CE94B193D8B4B33BCBEEFBABCB5D4A23C86218FBC5E37FC3CB05BA93C74CE573C5DD8383C0A72123C036A423C11A197BCFFB7D8B8D319F33BF9537D3C135A043CA187733C56778BBCB318073DB456D33CCDDAB53B55F30F3D68D07ABC5C921A3DA4EFEDBC58CCA5BC8C1E673B9BB65EBB364702BC465BF739EF32C9BCFB3E69BC0EEA093D9A4AC63C9150D0BC9FFB00BD67EC53BB18B61EBC1E28A93B39915B3C424B81BCA11892BC70B965BCD7D889BC2E39A1BC8C6BD4B968476BBD702130BCD4F556BD2FA996BCD6D912BD8A2C8CBDEA1D1FBD825429BD4452AFBCFB8E34BDF775EBBCDD5914BD1D2408BD31F3BEBCC441033D0D68813B2A5C323C0AF7E1BCB306023B64D582BC7613B03C8FC436BBD06DA6BC8B8B91BC7EC599BB636C4FBD9FB2E2BC0729A1BCAD95AD3A251685BBF85893BC55F85ABDD4070ABE5962CDBDFD31D6BD7437B5BDE84A88BD42D077BD2B9A66BC8C1301BDC837F9BC5ED389BC4CF70B3DC913843C48597C3C21C50C3D4D8D0FBD297714BDAC83C5BC9E614DBCADFF10BDD2FBEABA655406BDEDED7FBB0E41F9BB88C958BDE5DF4CBD16C244BD9D5757BDA98A8ABD6C8006BE4E6C04BEBDA212BE8538FDBD51D71EBDA62D2BBD49E762BC6D96DDBA8B0FA93B149AE0BBFBA0843C9724A73CD4CBC43B4D4EF4BCBEF6B33C3B34C8BBC3F4113B97E8233B6930B73BF86618BC5DE2CEBC0326ADBCA5F285BC9FE385BC9311913C47601D3C1BC221BDDB7B08BE99E6FCBD8FC511BE710ED7BD6DFCD8BD8AD7C1BD128C2BBD2B24103C3DF98EBC5FCD063C752E11BD1144CABC05B8AE3AE32F05BDAC4C10BD709694BC0F5325BDF672003C4D92AA3B8E28ECBC4AAA78BB0972CA3CBF55C63C8D5B433D5F62023D04FB38BB7397BEBB64FFB5BD0F4507BE42A8B8BD9A51FCBDDE47D0BDD06538BD2AB137BDF26236BDCB798DBBFC90AC3CEC8AB3BC0A2668BCCD8C273CDBEAA73CADD9F4BAD92D9BBB3F6D383CFFB46D3A715FCB3C4B55B33CED19C43C9483AFBBC7E71ABCA5B7923CE5E4883DA9BC543D498D1C39C8BDC5BC0F9ABBBD55B2E6BD065FD5BD777CD4BD0785ADBD5D415BBD94EB03BD925BAFBCE1D680BCAAF13C3C2719573C05E0DDBC5B6F4C3BF566823CEA35863B1F73A9BB009AAF3B60DDC03C512FF63B474E21BC4559E63BF8D0643BFFAB0E3DA8315D3DBBC83A3DC6059B3D69E5143D1E0A51BC49FCF7BC59D1B1BC2C714ABD9195BB3B4036B9BC81800FBC88EA493DCA8EE43C4BFFCD3C933D213D374405BCC5FB14BCB31FA7BC5E3E80BC866830BB927BB43C7EF57CBB423DCC3C370AB1BC28A88CBC07E38EBC72E32D3D20A24D3D620D4B3DE322963DAFBF613DDBA157BD274692BD9B67EB3B0871EB3CA1E8503AF1179B3C18EE173DCD5F8B3C729D3C3D9959953D1291123CDD4E98BCD72E023D1176783B17C3CB3CAAAB3C3C53CB3EBC9DA6733CD7E44BBCE2539FBC3DF3D33CC0A302BDB33673BC0D911D3DAD888E3D9CDE0D3D733B6A3DDB177DBC6C7A0FBD60A8433C55CBB3BBACEDD33BBE80883CC1080F3D5643603D27FFD33C2150BB3D85E7373D2FC8413B1267CA3C51CC213C73CFD53A486897BB074D9B3C85A79ABCBFA0C0BCFA95B4B9C7AE1CBC1296A73C39BA91BC9E652B3D15A5163DF7A3423D8F6B9A3D1203793DB8A1C23CD266803B9077BD3CBD9A1ABC452B193C34B018BDB5FD103D9FB8153D17A64B3D4FFACE3D16B1E83CD7CD43398400283D4993F93B23F40FBC3386A73C5C30D8BCFA0B863C3403D3BB590C083D2898C23CD4C8573CE5FD86BBF82C443DA1B0133D1F804D3DABEF953DC462803DB91EC33CCB9688BC91C7A43C41E7843CDA360CBD07EF71BD1906963C1F03CD3CAA8F5E3D5C24B43D1BF0F53CC8AF0B3DA6CA9738C891893CBEFB5B3C1525F3BBC1A7D43BF94C2B3C546B003D62A31E3C74602EBACD045ABB15B59BBC3CD0433DD413813D0C87FF3D68B1133E6385DA3D30F92A3D7031333D78F326BD02534CBA165F32BD8B8AEB3B40F64D3DFE77A23D2727933D2700B03D1D21893DFC9CCF3C199812BC9BA922BC2CCF043DDA1A0D3D689BB93C1069333CF6C07DBC2FBCD23C2C05753CBF133ABDD23725BD196CAF3BC98F0D3D34B1D43D65A22A3E9D65CD3D5292C53D2215333DBC3BAFBC99B7813BD81A0F3D67994E3C13FB8B3D879BE03DCA74AC3DA8128B3DD34BE3BB7A365B3CFDE8643CD5262BBC3202C93B40B8BFBCF86DFABCCDF9E33BE08F793C977213BD926A39BC5915943ADDB482BD42FDB9BB9EAAC73C025ED93D013D103EBD17F33D0CBAAC3DD058AD3D3E89163D1273A33DF30CC83D61549F3DF8C9853D62B5263D8A84073DAF3ABABC829F8A3C36C4BF3BB914BABCF3DB993A36A5D93C9462E43AF34941BC967A42BB4FC89E3CA03D29BCDD72203CAE2425BD0F87E4BC219329BD5EB54BBD199A1C3DCBBAD33D8C6A0B3E7D530F3EEE22153E26C0DD3D2BA3C03DCC00903D173FA43DE8CD4E3DEC712A3DB9F207BD5715B8BBA60DCCBC16E92ABD68648D3C23FF6BBC05C59C3B273FC0B97FA3F13CCD399E3BF55BD03C593284BBEA5724BDD2CE6ABDCA0C27BD21A938BDCD2557BD78AB8BBC00B9CDBA5951843D91F5B53D75C2A33DD587A93D42F06B3D23F5473C77028D3A5C339DBCBF57D2BB45A904BD506F813B55462FBD4972A13B578BD23A982130BCDC1B8F3C4A45D73B744CC53CFC0BC8BC98AAF9BBCCE57B3C5A2990BCA0DCDABC369B41BB6A421ABD3A887FBDCE5EEBBDB63974BDFC3E5BBD609B8DBDEA9B8CBD131B9BBDC9D588BD5FD884BDCFA596BDED2D85BDECC598BC121B44BDCD63E6BC76BEC4BC64B3A3BC4C45C1BC9B00C03CFB00C83C200E92BCDCE9DFBA5CFD853B7970143CDDB602BC88750B39176012BD45B043BD7105E4BC65C42CBD22D9B0BDA9B183BDAA27BDBD84DCA5BD2FC2BCBD2F0DAFBD6EF0D5BDBBBB11BD1AC825BD28F974BDB04A52BD2CD29D3CF3960EBCB2AE603C453B08BD31F3BD3C11AD00BD5D426F3B255EE7BCC23D0F3DA3ACE23C4A3E113CA1E0FBBC5A9A06BDD0AFF0BC8A81993C73A4353C845E2BBC16D445BD4E4337BD54A07BBCC3ACF8BC37F56FBDB35F34BDD5BD82BD3FB235BC9DDF45BDD8A047BD2BC8433C2335D6BBB9AB873CBE2DB8BCD25BFCBB4A50363C83F3F13C4498433B6E1DAE3ADE85C53CDEF204BDE593D33C5DF05FBC616E043C69E3E0BC9C6388BCF792C7BC701C143C9CB79CBC7C2A48BC20CDD23AFFB5E4BCCEF340BD1C0AA8BC148B02BDAD9FAFBC4092C7BC75CC07BD0F12E43C1E911CBC4BE7CD3BAECB033D9AB5933CBE6C6E3C2512063DC65DD73C913BBABCF738CCBC6502103C4700CABC553F05BD140BAB3B54BE8A3C8929A43CA647DEBC06FA99BC390A9EBB2002BDBB67E59A3C4F2660BCDC1EB1BB28BF473C7624EBBCEB84593B51FDF43C21A98D3C1E8B953ACE0CA4BCF7D092BA4EC8ECBC7220DFBCCA56F6BCF8B8D0BC6EFF773BC3F4E83C95A3AEBCDC50F73C9E66A7BC0AE44C3C7C9AEE3CABFEEC39E78CF13CC7CFB2BC37AABDBBA038AEBC6DD306BD8EAC21BB3971023D610F3ABB58F2033DDD3EA3BC734FA7BC4B73EEBC33E1A4BBA39A0BBDF5C506BD87B20DBCA5C2283CE1BBF93C0EC6CFBC41857F3C6E3DC13A2A197CBC9CBD01BD6A6F7FBC8A22C0BB31C6E43C9363BA3B8A4563BCDCA8CBBBDB0C053D4CFD9EBCE0819CBCF71CD63C332E36BC5C87CBBC4A298EBCF734EC3CCF1A8A3CB77AB6BB67E1C03CB7BCDA3C207793BCA328833CDCA6BD3A4EAC57BC6E960F3C8895DF3C97E1343C4707B3BC93743939C2690FBD67D00ABD63280E3D0E03EA3CC1BBD53C283061BB8A23ED3CBF4DE93C87AD463C9C74AC3C588370BC46D137BC941FF8BC203A97BC2CBD7FBCE6DB60BC2F3CBA3C539BEC3CFC81B93BA288CC3C6DB1F1BCB68A8BBCB4D69A3C0283B5BCDC9BA43A813BEDBC3815123D6C99863CCA6EEBBBAED855BCD838D6BB1D130C3DC458C93C3C58FCBC733CCFBCE460AABC046B103D74C9F2BC4B35AA3C406FB33CF0294C3C00687E3BFFCE19BD98BF4D3C1054A6BADDD3F5BB4EAFD7BC961D12BCCB2CDE3C5CDF1DBC1C9DF63B9762CABC3093A5BCCAFCACBCEAE736BC33B2A4BC8185CBBBAC6DA63CD24FAEBCCF4BCEBCB622B53CDDE5F5BC263D03BDCD9D723C83B40FBC173C0BBD39A249BB98529CBC4A362CBDEE02C3BB4CA6723C6E5BB83C6F0ABA3B83873ABC982100BD2A4BA1BA2B1A1EBC6E9BC93CC3FD643CF96FA73C0C34423B8433A9BCA229033C251D5B3BC1F15BBC4A3980BAA6B29F3C0006A43C7FF460BC62C2EF3C0406D4BCD281CABB6C1B833C94855D3CA72026BD80DD79BB12D6F7BC36B145BC910588BD2F7E95BD2DE1DFBB5AC3F9BCA6E337BC0431CFBC4BBB0CBDFA019F3C97BA91BCF1D0853CA54221BC3C1D6ABBB56EECBAC4727A3B9CF9BDBCEE1B753C21C303BDCF01353C04E7B4BCD7DBD03C5BADEDBC15E6A4BBE9D7753B8BA243BDED0A39BD7D6492BD3DD7A8BD48AB9CBD8B7FB4BD79C796BD97C5DCBDC8EA9BBDED7DA6BD927D14BD2430F8BCD31414BDBF84473C830BD7BA477369BC510F99BBB082E7BC53C4543CEC4098BC931A8A3CE2C2EC3C0F970DBD7DFA5E3CEF89B13C108C673A8DEE5D3B92C730BBFF04B13CC7BA2DBD3F4243BDF4782CBD0056C7BD393391BD74E1AEBD7B75AFBD6DDCB4BDD0DC2BBDCF819CBD4AF398BD16A47ABCC8E5D63B975FBFBCE99C04BD9D89973CADDC62BC9F640DBD6D0BEDBBA07DE0BC4DD5063D3F6E023D4BAF84BB427C7FBCEB920C3C473B103C3BAD833DC973323D22F5223D993ADEBBCAD2EB392338943B4D3E3FBDF47130BDB9A42FBDAF6FBCBCF0A5EBBC79355EBC420FA4BC48F541BD94CF4DBD99FB58BCCB27B03C61BB323C21A182BCAD982B3B4BBC5ABC9E45F23C4319D6BC0591F6BBCD64503CEFC88D3D41679A3DCECFD43D1024C63D7A5F9F3D7143963D76BFB13DAF7FBA3DF4867A3DA3C1E83D45A6ED3DD5ECA43D9639BF3DB7C3903D71ABA23D27414A3CED8D1B3D4C92DB3C2857E4BC516CE6BC45428BBC22AEEBBA359C0CBDABA9BEBCBE62043C7EF6D2BBFDD1F13CDFA86D3CECB74E3D4030723DDD3CB43D9D06CA3D1D03053E9B4A043E92828A3D5C8D043EF150A23D0863C83D0C6EF23D8022043E1B43D63D02FABA3DB130C93DCD12563C7291BBBB9366B93C3799C93CE053C13CC2DC11BD5FBD2BBC47E4E43CEB9601BD0E13F13C7AE74FBCA6EDD73CB341553C8E12A43D0731993DE2A7C23DFFD1363DB2509C3D60D43F3DF53BC53C2979CA3CBDE2B43D83E04C3D384FB63D4E1EE33DB9FCAD3D6E20A13D44809D3D089C403D2B973F3BCFB316BC2DF060BB37382BBC2AF1E7BC0A9DDCBCD0C315BBD388293C4C85B43CEC4701BC803D75BA279D483C4F74493DD552B33C89FAEB3BDC92133DFBD5193DC1B65DBC20F810BDB2E606BCD7CC44BC22C1E0BC9D80CB3CADE8823D5567AD3D0CC8063EC909A53D86E49F3D08B1243D97AA47BC156A65BCA2F518BD9CAA00BCF3A5073D78CA5E3C00E6EEBC56379A3CF255A83C8DE652BBBC29103D0054923BD85281BCE04483BCFCED963BBE44A7BCB5F65DBD672632BD38CEA6BDCF73CEBD3C0DBDBD80719FBD10E8733C0F329A3DC0233E3DF55BA93D0B4B9C3C6CA5E33C2F82883B13DC083C9905F8BB5C68BDBCEC61973B4BD98C3B1AFA10BDA97FCBBCDD15A93CF44A7D3C553E353D5464B0BC0E60793A4873B8BCD060EDBBA4929EBDAC7FEABDBED8F3BDCFBC02BEBED906BE2487F1BD62DFA8BD9362343DAC3B9A3D81E6763D9B31113D49072BBC2E939D3C6A725CBCE41F76BC644D05BDC521DA3B098EEABCC19A87BB3E03893A5171E33C0541FA3CB92B10BC51E6383B80B3AD3C951EFFBCE2080DBDCD696BBD3A1DB8BDA620B7BD859313BE0E5CD4BD598505BE45810FBE97AB8FBC2DF34A3C0671833DBA5DC03D15D2C53ACA7FA6BB16F1AFBC6268623CD493B33C94DB7A3BEF84CE3CE2E0803C4F55E1BB13C633BC17BED4BB657568BBC1140F3D8EB1DABCF59E0EBD339A93BC046D90BD90C0B6BDAD7A95BDB097EDBD034F0DBEE735DEBD0A6314BE9EDEE1BD881A663C0B463E3D4E49893D9AF13A3DEC47183C73BC8DBC2769C73A629F99BCD9E9533C06516A3C30C690BC6D4A0CBD7E60F5BC98229A3CEDD1C8BC70AA083C264F063DCF99533C7843833C20980EBD78CD24BDA236FDBCE4627BBD8AF3B4BDB9B0F7BD6B5FDCBD39C375BD38AE00BDC0537E3DC8488E3D1427363DA6BDA33CE17C2EBA82BAF2BCBFDABEBCCB1219BDF82F853C4B70553C6ABD01BDF675DABBED4498BCBC1876BC5704163BA79A0CBD09C4DB3CB20110BCCB8310BB1645A0BABC8153BD952CFDBC7E9A43BD6221B2BD0B150EBD72A583BD685A09BD5DDE403D8E63B53DF83F733DA3D3CE3CF0FD063C3A313CBC394BB3BBC03319BD11B17DBC5EDA15BD50C8E1BCEE80F2BC4CB545BCD52C9BBCF22A7ABC113E643C47C80E3D9F609EBCD779D13B7704CABC0392ECBBC0A3E6BC69DE70BD8A026BBD321C4FBDB0BE7CBD83B9F0BCA4DA373BE026643D6B0D483DC9BB363C4A60E0BC1D791B3BFE9A3ABDEA3881BDD205DEBC49DEF5BCF7D680BC17A3B63CE58BD9BB0AF1083D328706BD6E9C5F3C5C365CBB9AB4D4BC0419203C5BE0A23CD84CF63B7C0DDFBB1BEF94BD2AE135BD1E410FBDF3DA06BD1B274ABD34EF23BCF051993D819F073DBA10713D3EA43F3CBBCC37BD25819EBCC8668DBDC135EDBC6A9C77BDA651DDBCF3D05EBC65A61FBC8233993C573FF0BC28BD683CC54CABBCE98AE03BD3BA81BC2C2E623CFE7625BD8AEFFBBB299BB4BC89827ABD008869BD31E2C5BD29253ABDEB35ACBCB98DE63C098E773DC3CB463D760896BC9968C83AE58D86BC736247BDF57774BD38B080BBF8A71CBD5D1AB43B728647BBDF43393C5CE1463C771DFABCC6D5033DE9F9953C413B2F3C0ECB16BC7AEA9E3CBBB4D1BB4D2591BCE2E342BCA6EF1FBD41FD60BD853E39BD1C9083BDC4066FBC6B422DBBC7F79EBB17F46EBBEF96D7BB84F770BD9A5094BD191494BC14C560BC7B529DBC10C2A7BCB23A32BD55BEC53B251490BCBA24C93C011CB3BCCEAA453C020E26BB4A55003D5FDB8B3C3BACAA3C50BD9DBB5204A5BC1F06D0BC8377B1BC7D6667BD4F652CBDFC0814BD01F839BB0AE5E73C03EA85BC3AC9893CC95721BCE42265BC230726BD5A397FBDFF3E77BDF4A542BDB42014BDA5F74E3CDF3BFE3B6C36DA3B205EB73C7CDCEFBB1CE5F8BB2EB8F63BBC900CBCBB346DBC8BB7A93CC596053B7582933C10441BBC65791CBCC4B053BC27F2D7BC4990E03C7367143D8998603DA6E52D3D397A20B946F3073D9A6CFE3CEDC6D63BDA0AAD3C20577ABC33D337BD0F0EB43B597ECA3C9846523B9B31C4BC8490F3BCE45C0D3D1AD8FDBC810DC73CBC85263CADADA3BCD899D13C1D58EA3C8FD472BC1CF5CD3C7608903B4D1D3B3DC7BF963D19E3823DC64A4C3D925B413D94ADB23DCD07833DAFC8943DC831323D58F5AABC50EB373C749DBA3CE40E31B9DE9C033DB3BC86BC352200BDBB24F1BC69F20CBCD81CB0BC1C80573C5C4170BB9359953CFF27613C4D588FBC009545BC22F5D8BC4759903C3E75633C1B928A3DE3A9313D0B68A33D9BADD23D946BD33DBDBF453D62AB153D7D8DCD3CA0DD893DA0C342BC9F64813C7D097CBC7006063D14CB07BD23A7AF3CF7F94ABC96F7A0BCDB6C943B580D65BB00AC1B3B2552313B8A69F7BC201C13BC785A073DA472E8BC2922CABCF209BA3C76CBBB3CFB3D4B3D2A24863D5C47423CD0E33D3C207F6E3D41C6D63CA7B9463DAA668D3DBA97593CDF6B4D3A4633613CD5F0F83C42C90CBD4E8F013D7AEF9FBC6A2C63BAD049023D869E84BCB7E8D33B756AB13C81CC51BC019DE23C65C6B3BC61A13EBC9487A73C45B461BC4FFC1BBBFE84B93B5AF2C5BCF3DB80BCA263B8BCD4097D3B2AE60ABCC1A9073D22FFAE3C21A1C6BCABF37F3C2463E1BCED1CEC3C96F6B7BC6FBE823B2EE680BBC249CABB86C201BD61B5C4BC3C3D023C4116C3BB9CC469BCBCB1C9BC17BECB3C1540F13CEEE61C3B1CF6D63CEEDD983B36C70D3DFC21E13C77F4B3BB58EF6DBCBE68CEBCDC46713AE827E03C86E0F13C17C1023B5548B9BC586FEFBC1FF90DBD01865D3B35539E3C8A5FACBBE15D60BC23BFF1BC1C12B2BB97FA873CE7ACB5BC45C3493C7F6404BD81696B3CCCCEBFBCEECF943C5C5A5DBC932DCBBCD074773C656EE0BCA317D63CE100B0BC1FACF63C8D23343C83DCA03C6C579FBB1319E63CE341643C6DCDF0BCB21B25B9F3B257BBAFECA1BCD7D97C3C2633963C708186B9AA0F9DBC459093BCDC27C2BC135034BC5D100FBD459311BCA5E0C53BE58AEEBC12ADA5BCD144343C0413513C02E6903C3182013CEC24323C6BC1E9BC7F02B03BC1F8203C05D95EBC71E709BD0FBE35BCCCF64F3C24C917BD943520BD969E593C81F39DBBD843D0BCD565C23C509B01BB422AF83CAF06EB3C1C80A23C19E3683B818D463BA155B93CCC1BA7BCC83AF5BC42DE593C36823C3C783CA5BCDA80763B22836CBBFA7DA83C0009DC3A2EF5DCB91C36DDBC52DC9EBC53F4A0BC119DAC3CF4508DBCCABD46BD182640BC4CEFC7BC14C701BC5E79CBBC68B9963C92FB983C69F2823C3E16C23C3661F53C9979023DFA89A23CB56BC2BCBCC85B3C7C88B4BC491877BC4DE4CBBBBF668C3B0188913CC776F9BC7B01B93C3597273AF80F6FBCE20026BDF9CC06BD944CEFBC2AB74CBD1AD21EBDFB7262BB5E9367BD3F4481BC9821803B55D8A5BCEFFB11BD29D5383CA81407BD0C56DF3B3FCECEBA53EA10BD70F360BC2D3B6FBCFBCD03BDAAB641BC0D58803C587086BC28BC253C4C5917BD077A82BB25185B3B82A1C3BCBF5B0ABAC68814BC8D1E0CBD1442B83CCB62383DEDD1C53C0165AF3D4DD60C3DAE799B3D0D2EED3C03564ABC7FC3A8BCB391233C5FA6063D6223AABC3B58E638D7EDCE3B8174CDBB77248E3C6E93BA3CFA21D3BC4C3BECBCD0B709BC5C55E73AA0B011BD2B32863B2DDB8F3B81203ABDBAECFEBC82994A3C5DA50B3D4366CB3B489A973DC0807E3DB2DD9D3D2B0EE53CB6559C3D653D333D8A59193D498C613C85F72FBCA0748EBC1610FA3CFD577FBCF9F6DBB78193E8BC40A6CEBC69B5C5BC164EBFBCAD3E9ABC9C27F4BC426CB23C304CB8BB0843BCBCF7F6B7BCFB51E2BC9AD5BABA33B7983C3A33C93C78AB1D3CCF13503CF93FCC3C73EE00BD80BE993CF372103C694B813C99C12A3D77C3EB3CCCA1943BD959FA3ADD13F3BB9D6D073DDDBC07BC8AA3BE3CC55DB2BC74E3FFBCF74705BDFD7CACBC35310B3A3C13243B59CBA2BC8D0588BC940993BCDA0E053C45D2193DDB3B543D60A7FE3BD0E2E23BC5BA2BBDBF4A17BDBEC8DFBC7AA8C3BDC308D1BCFA0A4BBD3A30EFBAE367243CEAC0853D79E1763DB27E713D3EF8F63B6682073C8585113D92D197BB712E0FBD61239FBA5892EB3C947FA73C02C23F3CC0A9EA3CAD561CBC2F5AA1BB7AA1F63C4B518B3D9CB63F3DE5C5673D7C62033D58EF26BDC41D32BD888CBDBD416DB1BD8D376CBD1FA403BD7E394C3D27649D3D3BAC873D01CCF23C8ACF3A3D2B931A3DDA3FE33C56C7783C85740A3C65CE413A8E7303BC24129B3CDEADA7BCEFA475BC7BF89E3C6B37A8BC657BF03CB68A113DF7E5A43CD2FBE03CA23B233D787EC2BBA12C35BD401CA9BD94604EBD8EE080BD1DC675BDE6C8C33C7EA43E3D2479713DDD409A3D0268703DFB483E3D49B33C3B36F7E5BCF95819BCD55244BC35CCD6BC7DBBD53BFE1A12BD578E043D25035EBCEDDEE7BCFFFD09BC069F2DBC85D26BBB87FFA93C419D423A13F8353DA7D4933DCB324F3DB04227BDA77125BDAD1571BCEC42A43CFFC1D43CCE58A13CFE32973D360E583DFA4A713AFBEB543C25D9D43C89C3B6BC3980D8BC9172BB3CF6F1FD3CCEBDDA3B605DC63CA35D8FBBC72509BC227EF7BC7F9002BC85598E3C97D8B5BB9E7F5F3C0B7C613CF517B33CA71A9C3D0CEE783D2F00FD3C7918563A8C96183DF7A1E33C9AB6B93B094ABD3BD50997BBEBC7C43C0114DC3C39A0CEBC8C52DEBB94B5CC3C0156033D197C8ABBA1E9723BAD3A8C3B363B54BC938A453CAE07333C432F23BC5273BF3B662EDCBB2E924FBD944977BD4D7BD0BC09EE8D3DCFB9BC3DA4CCE33D1105603D206F2F3C1C06833D98BFADBC64D722BD7D34433CA78244BDECE76FBBBD700BBD1CB0AA3CB95AC4BC2FCB98BC022A543C717B533CE75AF23C608CD03BF1B9923C529DB73C8CACBA3C2FA5CBBCE3904CBC4AED86BDC76E5ABDC714BABD7BEEE6BC240DA3BA23EEF03D56B4E93D57AE8A3D1E16873D25DB79BC09E518BC0C6AC6BD2BED62BDDA370ABD7EB8E4BC33D483BB0B5F25BD0084D2BC7020BC3C1C6AD3B968B768BC9D0BAEBB1F100B3D3FA0573A224CB93C88FCC4BC98A849BD33F949BD684CA8BDC41F6BBD931BD2BDE7D362BD7719483DC9408F3D7819AD3DE20EA43D6425023D5FDB6A3BB21F2EBD9067C5BD40DEAFBDF5DA32BD5C5409BDD857BEBC3FCAB1BC9FB05EBCEFE5A0BBA467A33CC496B5BC41FF823C60F45D3C4B9DCA3C4DC3B6BB0921423C862D92BBBE7A0BBD5CFDA6BDB0EFF9BC6166C1BB8BEC383D7525DC3D6843C13D03C0583D3E9B603CA54B0EBC8F641FBDAED209BD5EB7B9BD0EE5A7BDF0D80FBD11F854BD4F3DC0BBEA6A99BBACB5C03B34AFEEBC0299C23C3F7CD83C1CAB55BCB94C01BD81A3A83A6E06DB3C3C16CEBCEB6732BCD30310BC5F52EEBC474D11BCBD70D4BB2891803DDABCE43DF5C6983DD35ADF3C2FA2EF3C8AB01EBDA1ED2EBD6717D8BBFC5D4BBD0E8147BDFF4F49BDA45722BD04372C3C2A7E70BB515A15BD8E0BB7BB54E101BC02418ABCD07574BB15C7813C9751F63BCD01BB3C08AF34BD3091E1BC9074CCBC9FCC44BD183A1F3DCAEA6A3D866CA53DE05C913D820E8E3D4D481F3A196D83BCEDA5B7BC3FFB23BD21468BBC5F4A85BD068F30BD6CDE34BD74A4963BFF5256BCB74AB03B81E7D8BC507BE43CFBA540BC6E00B23C76CF833C94EDA4BCDFD2873C9F9609BD76FCBBBBBBBA5D3BB13364BD5783823CCC05823D3148CD3D9CE0A13D1D6B813DEA0EBC3C8F98A0BD42818BBDA8C09BBD5C732DBC801AA6BC2D7C70BD7E7E3CBD5277C2BCB66527BD110B24BD035074BCE3D100BD4AF4E03C5F35313C4EA007BD4AE8D3BB12FE3FBC58F994BC2F2B93BCBCD727BDDFAB36BD936DB03BDFB6053C8B1BE73C866E8A3B283A0C3DAFA5C13C524C5ABD2FD66FBD68E132BD3E1284BD9E2303BC67B1CDBC18EF203C1F2F3CBDABC6553C949132BCE860C2BC820EBE3CEB72103BAA2EBD3CBC56C4BCC07686BB5CEF003D792A1D3B765CB2BB7F86B8BBE5AC33BC6CA31DBD2C5D96BCE3BA7A3CE88863BC32862E3D7895E93CE51D2EBBD8AB663B2B8C4FBDADD677BD78E2143C7E7DC43CF138D03C2B8E183DC990BBBCB70F823C70570ABDEFBAB7BB48658A3B0FB5E83CA66733BB5D640F3D85F4563C700D29BCEA1F0BBDC2E7FCBC09689E3C7853A73B99AE0FBDF1ED96BCACE2ACBCD59D253CFA9C4A3D5DE99C3C8FC2A33D6C50AF3D643FAC3C9CABC83C7527833D6549863C5F81A93CC8C9C53C175BFD3CE95BD6BB853F64BA10CFDD3C35CEFC3C3A593B3C61CAE4BB1CF1AFBC7C6E4CBCB791C7BA93F449BAC3BFB43B1F3AF3BCD5E4363CFFBD52BC1CBE11BDEE2E0CBC6C33973CC5E5DE3CA44B7A3DD158CA3D3B26B73DE2020E3E4F01A83D0B74A43D596FA43D8A8A8F3D2A75333DB5D748BCB1B2E73C3F14D73CBDCCA3BC92F2B1BCA5D2E63C28AE583C6D92733A816DF73BD509A73CFCE1CA3CCA0FC9BCC838043DE124BA3CC608C3BCCAAB5A3CCCE09E3CAFDF8FBCE30C9A3C32F04A3C9877623D31BDBB3CEC30B23D40F0A73D423D153D878FF83C5ECE053D0E2508BC0CA2EABC36845ABCEE28083DC2C418BCABCBCE3C05D50EBDFB2289BBA042E0BCB71A953A65D1FD3C938A073B2BA29ABC0EB711BD1DF930BC55FE0FBDADC092BC328DB0BB0A123EBDDB2926BD493482BCEBA8113C682E893BF3CF79BCCA230FBD2D2B3D3C5B7C60BCDB4F4BBCD83ED4BCCC5B803C01C2A4BCEF27C4BCFE4E0EBDCBA6BEBCB982DC3CE499373C93C3F03C0EB26BBC936CE93BB564963C0ADA333CA29DD23C5B680BBC3A1DF1BBDD4010BDBE2495BCC8DE5D3CA3A1DDBBE2173DBCEFB7C73C94431EBC5FC6B33BE73A88BC501D10BDC2ED02BD17077C3C8BB92CBB6AD9B2BC478CB5BC7BD808BD314200BDBE0800BDB328FC3C783BC1BCABEA08BD3315D1BC8A2D163CEE9FFF3BB58F10BDA321DEBCBAFABABC29D9513CA3AF3D3C4E7DEDBB23F4883B5340B1BC8A1C8CBC1BE9EBBBA44AFC3C4762BEBCE080E43C2A59E3BC3DD2A33B5A682DBB49A30BBDDB8A113DD4B60DBCC7B0DCBC505D013D5919A9BC1C65E4BB5C42353C4809E3BCA309B9BC25ACFBBA7CC1843CA366C4BC13E39B3B8C72D3BC4CE8D1BCDEAAA7BC6ED801BCF8ABFA3CBFCD093D0C0ECA3C07FF0C3D795FB5BC741386BCA18AFC3CA597BF3CC53938BC5C8F0D3B0A6468BCEA3CC93C25C1BB3A2E2AFB3C7E85D5BC8E58DD3CA5E331BCF7B8B23C9C30313C2AF530BC058735BCD39A873B772385BCEE3CA03B252A933BFFD99B3B6D318E3CD6A5C5BC4DE7EDBB8BD034393006CC3C27932FBC1BF3A13C3D81C5BCB9A0863CDA1567BB14673FBB300C1ABCDA11103DA8C250BCD8E3463C37F5DEBB6ECE05BD5827D53B2A854F3C9CEE673C6CC3DBBCE55C233C5CFF04BCC32802BD3D7100BC6B81C23CDAC60CBD4895B5BC192BB23C521AC4BC573783BB23476A3CAD44B03C63E0093C3973983CBD52013C582293BCC8BC9F3C608EB93A878C1D3C087FF4BC514118BC66A65BBC933487BCAB160B3DA57BA23C3661283C166B6BBCEE8A7A3CA3BDE9BC6C5E98BC98520A3D6538763AADC5703C954F413B4FF67E3C0DB020BC780035BC1796463C01539F3C87E598BBC68938BCB206B8BCC052C9BC5EBA2ABD6EA346BD0E1F6CBCEFFF89BCC9A5413BB3F03E3B0823DABCFEEE343C1CB671BC882E863C91F68BBCB6C7433B7FE839BC3CD83B3CECD1BBBCE0E7A0BCA95EF53CB3F0223C006BB1BB86C6D63B0451073DF1E3C3BCF53834BC2BA02EBD7B3635BD13AF80B9A25684BAE4F27DBDEA743EBD7D644CBD7FF180BDD19D8DBD75AE3CBDCB1EDEBBC336B7BCA665BB3C1933D3BC46ED37BC112A07BDE326B5B81F9997BCD5D4E9BCD758CBBCA1B4E6BCC7A491BC95FC4B3CB1C40A3D65E6D9BB3EA40CBC837D873C4E7310BDA4491CBD4E6D7BBD556D85BC3AB777BD599330BDBDED5DBDCA8503BEDCF8CEBD2C3997BD43ECEABDDA3DBCBD93FA8DBDBED985BB1C5667BDAAD83D3C7B27F93AB6C3B23C1125913C67A6023DF7B4D43CB724153B3214DCBC68C0F7BBC7F2F8BCC5F45EBCEBCB6B3B17D86EBBAF492EBDA4DF36BDBF2E9FBCE55BF5BC55976CBD5B0827BD5DA8233DF106333D3D04653C0E16B23B8ACE7FBD0FE9D7BC256705BD4027A7BDA4998ABDA91A69BDA64336BC2FC70BBDD46AFDBCA9B5003D1F5A29BC7F669CBC54860ABD7EAAB63CD27E01BD2794953A879E3CBB1CFE75BDFFCC96BD478233BDE7F3AFBCF129EFBB7AE4033D482A8B3D7086283E1D6C013ED280193EE9A6383DB143533D81B5E7BC86148DBCF3F961BC87708CBD563C63BDF81AF7BC0FD3D3BB7729173C3F20243CDC13F53C4312FD3C1123CF3C5ADBF93C89CFEAB9D65B40BDA69335BD817AA5BBF4962DBD09A961BD1EA2B03C0CE8E93CEACBB43D64209F3DFB08973DF6FFB83DADA6513D3A4B0E3D956AE33C151302BD0497A5BC4728F5BC1D0B0EBD76AF29BD461C3CBDA5E9083CD7A8E6BC12F70CBDDB29133C4F6007BD0D9E15BD5228EFBA4ECDBBBC52CECBBC4A71343C2D3523BDDB42943C724B82BC97F8653D0A75A23D0D29003DD8A5133D7C29803C19B316BD30A3D63C98FC123D1293243DB3E65A3CD0134EB91E7C5DBDBA2B98BCFC318CBC605614BD2D23F73C471E713CC295043D68BAFD3C2EEB2EBCF8BB81BC6773383C1330963B66F5D63BF95CFCBC33D4A0BC31D1453D69DDF33C65408E3DFAF7E83C4277643C68B1B4BC3CDD70BDDE0997BDF22C8EBB23844B3D4A0A4B3D83B2763D2765FBBBD96B89BB49032BBC58E3A53B17E1D53C8BAE533A83A0A33CBCBE49BC998D053C87A7DABC5574FBBA90A66BBB4E66C7BC694E1D3CA417E23CA29D653DA7D5A03D9485CD3DC372AA3D00EFDC3C1B5C73BD9A7833BD3096B6BDC6C202BDC89F373AC40B983C5ED9183DFE76813DEE25753DD07BDA3B8AE2983C22BFD3BC6AAABB3B0993B5BCE280AB3CA3B7AE3BAD3C84BC4A5562BC201CE13C3C5F04BA02FA6EBC469F1A3D56C04D3DE451A23DD070723D0178C63DC474043D58E817BB41189EBD908523BD93E0A6BB2FA7AABCD4EB803D14B5C53D8659D13DD444513D6720213D1C9ADBBA1A2048BC6C9ECE3C42105C3C7B2AE83C30E10D3DDB83C5BC38798DBCD32B0BBDA3A83CBCD4556CBC9E4701BC21AA5D3D2B8C29B9A239963DA0DAA63DE2EE7A3DD76D373BB1C9F0BCC087DDBC6B906A3B300B043DFAF6A33D7255CE3D3A9CB73DDC5E7F3D10A5B23DE806B53C30949DBCB1B38CBBF82738BD648823BDC377923CD55903BCA3EEC33B5BF4EA3CDAAA103C03E5EB3C2958ABB9A8D5B73B7119EC3C33E2CE3C80A28B3D003A903D236DA63DF5C95E3D4552213B4263193DD4A1F73C56AEEABBBA79463D8FDFAE3DDC3BF93D663D9E3D7504E33CD5EA33BD839BF83BD8F2EABCC77997BC36AF11BD447915BD20935BBC4AD3773B385CDBBC692261BC6EA0E9BCD3ABC13A4173F2BC81ACA0BB3BB5D63CC1C1383D6650903D1A81EF3C9144863DC37D413DF654B738CFFDC03CF83DA13B91A20B3DB9A7C93D2CD9663DBAD28F3C5C8E46BDF83766BD992A8DBDC45F0EBDCA24813C06380DBDD787B5B883A805BD7B0DEABC62EBCFBCBEA10E3D4822FE3CCF3C05BD193C09BDB5F88CBA7761923C04EDF4BC5024233CA415F73CA2DD963DDF6A843AA913D63C5B296EBA0F33F5BBB1A0A53C883DD03D292C343DA6011FBB4FF28FBD818CECBC11326BBD468338BD08840BBA2FAA15BD654418BD16DCFF3CB276ABBBC316A63CB68D2B3CA167F2BCE91C0DBDB766B9BAF7E917BC80D337BD14F0C6BB859A40BD73FF9D3B145C9ABBC13C8CBCEFF40EBCDDC34BBD7467683C3706883B9CB4F83CC3818D3C7B6718BDFDA199BCE99C9DBDC3CD32BDDE61ECBB2194FDBC570DB2BC2C8FCF3C8165293B2A34B6BB2E045F3B0BA50F3D7682EC3C39F1813CD61AA63CBB4F8ABB8FEE1ABCA167CABC900441BD4D8E83BDFA0D76BDF63BA0BD96F602BD125C3DBCE81C433C73D9B63CA229553D1DCAF03BA076B3BB244D8EBDE74300BD2AAF51BDC1D2BDBB06FBE1BCE1EF77BAC455B83B653AA8BBF159E33C5163B73BAA1729BC376934BBD9E6D3BB91E4AD3CD67461BD807D47BCFC283DBD668C84BD7DE989BD927CD6BD2A28CCBD69E3A8BD42937EBD121550BC4821063D04CB93BA90ED7DBCFD5389BCE17E1CBDA39D3FBD0B77F8BCD88558BDFD0838BC73B3F7BA6775153CF957483C8CA4D83B0C9989BC09C7913CFF53043D082D4F3C88EDFDBC9D7DA7BC845EF5BCC3AE3BBDC128A7BD7E42D4BD623594BDCBBB83BD949CD1BDA75C15BB1FF58DBB83A116BC588275BC9B9FA6BC197730BD2446D4BCB25B0DBD76B7DCBC42A51BBDF2DD69BC8D0668BCA0445A3C4245DB3C3B44083DCC63F3BC2B9E0C3CDF3D32BC1C45CC3C5477C6BCDD8B07BD61C780BDB3AD8DBD86858EBD9F4DC5BDF49A03BE4F2A92BDD9364ABDE18D4FBD60CD7CBDB1C398BD3B4B26BD9CF3E3BC1BB9DDBCDEAAB1BB4E499C3C1A6801BD8068E63CE709943CFAA6623B2E01B93BFA7711BBDB0A02BD36CF353C589799BCFEDF063DA4B68B3C5DC5E8BB6289F5BCB3DD55BD584558BD770EFABC17914CBDB91467BD8F3A3CBD6B8C4DBD22EA2FBD5C8A86BDBF3084BD27AD81BB489277BBE20F523CA9C3893C64A3D33C97CC0F3D0785963CCF45E13BF80C0D3DC42DB9BBD8ECCFBC11BAE53C7C48F4BC1696113D8DD2C6BCAB080C3DEB48043DCFEE9ABB2F6C1BBD68CD58BDC695BEBC0B61A1BC8D6AA5BCB1B17DBD749F333B4297C9BC1D3CBFBC7B6769BD847490BC1FF0723C5685103D051549BBBADD44BC8A11983CF47A203D5A76C03C0FD1A3BB9F1EC1BCB6C8803C1701043D0E9D313C9AEC94BC5EE6F13C05C1EBBC0E4896BCF314893CEA4BB1B954D711BDA8F9DCBC0F7491BB187F69BC8078413D58AB5A3D3AE9183BD92D67BC208B3F3D8007203DAC38933DFE14033D3D221D3CF52E623D4BECAD39DDCD0E3DAF68EF3C9036FB3C0A70B8BC2CBEF03CCE58773CF7EA093C77E39FBC07F2103D5ACD21BC03240E3CCDCE073D9447F3BAA8BE0B3DDBE7BB3C3040423BF9E0073C73CC133D9A27723D2FCD433D9CEC293D89EE3A3D9FF5993D17846A3D9641403C1ACE693B8B85813A4BC50D3CF189D1BB2F280C3D67BD9C3CC7E990BB60A57ABC0186673A4A2EEA3C6E17B7BADCA885BC33F827BC332B04BD96791ABB6CC8873CC6498FBC67DB4F3C4BCB4D3CCF52BD3CD0D0003D4864053B69FEFF3C1B443B3DB9C2553C3B2F46BC2F85B13CFF97DBBA2ACF11BCA455213C89A840BCBA10E8BC512D40BC795BFC3CD4800C3D86C0083D8A9EA8BC15EEF73CDC6FA93CBECBC6BC9C64A43B2DF08CBCFD03F53CD504873BE0D7283CCA8C9BBC8877BB3C07AF723C89B904BD477402BC1A79E5BC73188A3BD66C093DC49311BDBED940BC00D7D13C33432FBBB02B643C2C9DDC3C93C2BBBC9078D3BB175596BC83CEE9BC0523C73C932C58BC">
  memref.global "private" @linear_bias : memref<10xf32> = dense<[-6.296120e-02, 0.0944714397, -0.00626989966, -0.0283874106, 0.00623913156, 0.0182388891, -0.043774806, 0.0546340905, -0.0978825613, -0.00181237468]>
  func.func private @linear2d_0(%arg0: memref<784xf32>, %arg1: memref<7840xf32>, %arg2: memref<10xf32>, %arg3: memref<10xf32>) attributes {itypes = "___", otypes = "_"} {
    %cst = arith.constant 0.000000e+00 : f32
    %c784 = arith.constant 784 : index
    %c10 = arith.constant 10 : index
    %c1 = arith.constant 1 : index
    %c0 = arith.constant 0 : index
    %alloc = memref.alloc() : memref<10xf32>
    %alloc_0 = memref.alloc() {name = "buf"} : memref<10xf32>
    scf.for %arg4 = %c0 to %c10 step %c1 {
      memref.store %cst, %alloc_0[%arg4] : memref<10xf32>
    }
    scf.for %arg4 = %c0 to %c784 step %c1 {
      %0 = memref.load %arg0[%arg4] : memref<784xf32>
      %alloc_1 = memref.alloc() : memref<1xf32>
      memref.store %0, %alloc_1[%c0] : memref<1xf32>
      scf.for %arg5 = %c0 to %c10 step %c1 {
        %1 = memref.load %alloc_1[%c0] : memref<1xf32>
        %2 = arith.muli %arg5, %c784 : index
        %3 = arith.addi %2, %arg4 : index
        %4 = memref.load %arg1[%3] : memref<7840xf32>
        %5 = arith.mulf %1, %4 : f32
        %6 = memref.load %alloc_0[%arg5] : memref<10xf32>
        %7 = arith.addf %6, %5 : f32
        memref.store %7, %alloc_0[%arg5] : memref<10xf32>
      }
    }
    scf.for %arg4 = %c0 to %c10 step %c1 {
      %0 = memref.load %alloc_0[%arg4] : memref<10xf32>
      %1 = memref.load %arg2[%arg4] : memref<10xf32>
      %2 = arith.addf %0, %1 : f32
      memref.store %2, %alloc[%arg4] : memref<10xf32>
    }
    affine.for %arg4 = 0 to 10 {
      %0 = memref.load %alloc[%arg4] : memref<10xf32>
      memref.store %0, %arg3[%arg4] : memref<10xf32>
    }
    return
  }
  func.func private @forward(%arg0: memref<784xf32>, %arg1: memref<10xf32>) attributes {itypes = "_", otypes = "_"} {
    %0 = memref.get_global @constant_7840xf32_0 : memref<7840xf32>
    %1 = memref.get_global @linear_bias : memref<10xf32>
    %alloc = memref.alloc() : memref<10xf32>
    call @linear2d_0(%arg0, %0, %1, %alloc) : (memref<784xf32>, memref<7840xf32>, memref<10xf32>, memref<10xf32>) -> ()
    affine.for %arg2 = 0 to 10 {
      %2 = memref.load %alloc[%arg2] : memref<10xf32>
      memref.store %2, %arg1[%arg2] : memref<10xf32>
    }
    return
  }
}

